<pad>	0
<unk>	0
<s>	0
</s>	0
▁स	-0
को	-1
मा	-2
का	-3
र्	-4
▁प	-5
्र	-6
न्	-7
▁ग	-8
ने	-9
▁।	-10
▁र	-11
ले	-12
्य	-13
ला	-14
▁ब	-15
▁भ	-16
▁अ	-17
▁क	-18
▁ह	-19
▁व	-20
▁न	-21
ार	-22
▁छ	-23
▁म	-24
▁त	-25
▁द	-26
▁आ	-27
▁प्र	-28
▁ज	-29
ाल	-30
स्	-31
ति	-32
ता	-33
क्	-34
ान	-35
▁उ	-36
यो	-37
एको	-38
ना	-39
▁का	-40
▁गर	-41
नि	-42
▁वि	-43
हर	-44
▁गर्	-45
त्र	-46
म्	-47
लाई	-48
नु	-49
ेको	-50
वा	-51
▁य	-52
िक	-53
▁हु	-54
▁च	-55
ित	-56
था	-57
रा	-58
▁मा	-59
▁नि	-60
▁रा	-61
▁श	-62
▁ला	-63
▁ख	-64
▁ल	-65
या	-66
्या	-67
री	-68
▁ने	-69
पाल	-70
न्द	-71
▁ए	-72
त्	-73
क्ष	-74
ल्	-75
▁पनि	-76
▁सा	-77
▁सं	-78
▁स्	-79
▁थ	-80
ेर	-81
हि	-82
बा	-83
▁दि	-84
ेश	-85
हरु	-86
▁सम	-87
ाउ	-88
ष्	-89
ुर	-90
▁लाग	-91
▁नेपाल	-92
दै	-93
नी	-94
र्य	-95
हा	-96
दा	-97
▁हो	-98
िका	-99
ेका	-100
▁फ	-101
▁थि	-102
न्छ	-103
रि	-104
एका	-105
स्त	-106
▁भएको	-107
▁त्य	-108
बाट	-109
पा	-110
द्	-111
▁१	-112
▁२	-113
▁भने	-114
▁पा	-115
ाम	-116
▁छन्	-117
कार	-118
▁सम्	-119
वि	-120
▁रह	-121
ष्ट	-122
▁के	-123
ेख	-124
हरू	-125
▁कार्य	-126
▁निर्	-127
▁गरि	-128
भा	-129
▁घ	-130
▁लागि	-131
न्त्र	-132
▁कु	-133
▁पु	-134
लो	-135
सा	-136
क्र	-137
▁ध	-138
रण	-139
ेल	-140
्न	-141
छि	-142
ही	-143
ीय	-144
▁गरेको	-145
▁ट	-146
र्ष	-147
▁गर्ने	-148
▁यस	-149
न्त	-150
▁गर्न	-151
▁यो	-152
▁एक	-153
▁सु	-154
▁बा	-155
गा	-156
ारी	-157
..	-158
▁आफ	-159
्च	-160
स्था	-161
िय	-162
▁अध	-163
देश	-164
▁तथा	-165
▁प्रति	-166
ली	-167
टा	-168
धान	-169
डा	-170
▁व्य	-171
▁सर	-172
ेखि	-173
▁बि	-174
▁क्	-175
▁‘	-176
ुप	-177
▁राज	-178
िन	-179
▁थियो	-180
ँग	-181
▁सह	-182
योग	-183
▁को	-184
▁उन	-185
्रो	-186
ण्	-187
▁हुने	-188
▁दु	-189
पर्	-190
द्ध	-191
पछि	-192
गर	-193
की	-194
न्न	-195
रह	-196
▁अनु	-197
▁बता	-198
ौं	-199
रो	-200
कि	-201
▁मु	-202
म्म	-203
भि	-204
▁बढ	-205
एर	-206
▁उप	-207
िल्	-208
र्थ	-209
▁नै	-210
ीले	-211
डि	-212
ङ्	-213
▁क्ष	-214
▁सि	-215
▁तर	-216
ालय	-217
ीको	-218
ंग	-219
▁त्यस	-220
▁वा	-221
▁वर्ष	-222
र्व	-223
्व	-224
ेत	-225
क्त	-226
ष्ट्र	-227
ेस	-228
ेट	-229
स्थ	-230
बार	-231
ण्ड	-232
▁अव	-233
ाउँ	-234
▁ठ	-235
▁भन्	-236
सँग	-237
सि	-238
▁काम	-239
न्द्र	-240
कारी	-241
प्	-242
▁सरकार	-243
नमा	-244
▁स्थ	-245
▁परि	-246
▁थिए	-247
▁रहेको	-248
जा	-249
प्र	-250
▁इ	-251
सार	-252
▁बना	-253
ठमा	-254
▁हाम	-255
▁लि	-256
जार	-257
न्य	-258
क्रम	-259
न्ध	-260
नुपर्	-261
हाँ	-262
बै	-263
लि	-264
ेत्र	-265
न्दा	-266
जना	-267
▁काठमा	-268
▁२०	-269
याँ	-270
▁विश	-271
ाइ	-272
टी	-273
▁समा	-274
▁से	-275
मु	-276
नुभ	-277
▁रुप	-278
नको	-279
तिक	-280
▁क्षेत्र	-281
ँदै	-282
▁नेपाली	-283
द्य	-284
▁भए	-285
▁जन	-286
सी	-287
▁व्यव	-288
उने	-289
▁जना	-290
ती	-291
हिले	-292
▁सबै	-293
▁काठमाड	-294
▁गरेका	-295
▁प्रा	-296
▁कि	-297
▁जा	-298
्ने	-299
ुरु	-300
▁सो	-301
स्ता	-302
ैन	-303
म्प	-304
क्षा	-305
हु	-306
धि	-307
ानी	-308
दी	-309
▁पू	-310
▁मि	-311
धार	-312
▁३	-313
▁हुन्छ	-314
माण	-315
उन	-316
ेला	-317
िम	-318
▁मात्र	-319
सम्म	-320
▁भएका	-321
ोज	-322
▁पर्	-323
न्त्री	-324
▁देखि	-325
▁ना	-326
र्म	-327
ञ्च	-328
क्ति	-329
▁(	-330
चार	-331
▁भन्ने	-332
▁राष्ट्र	-333
▁बै	-334
▁उनी	-335
▁आफ्न	-336
▁स्थान	-337
▁बु	-338
▁मह	-339
ध्य	-340
▁गरिएको	-341
▁पार्	-342
▁कार्यक्रम	-343
सक	-344
▁दिन	-345
▁ड	-346
दि	-347
▁उत्	-348
▁कुरा	-349
▁अध्य	-350
वार	-351
पालिका	-352
र्ण	-353
िल्ला	-354
नै	-355
त्य	-356
▁गरी	-357
्रा	-358
रमा	-359
▁छैन	-360
मि	-361
▁महि	-362
...	-363
▁उनले	-364
▁अर्	-365
छन्	-366
बन्ध	-367
▁गर्दै	-368
▁जिल्ला	-369
▁राख	-370
▁हुन	-371
गत	-372
▁पर	-373
▁था	-374
स्तो	-375
▁समय	-376
मान	-377
▁५	-378
▁जान	-379
ेक	-380
कृ	-381
्रम	-382
▁ती	-383
▁सक्	-384
शा	-385
▁झ	-386
▁प्रहर	-387
▁भा	-388
लेख	-389
ारत	-390
भाव	-391
ुट	-392
ेद	-393
▁स्व	-394
रहेको	-395
कास	-396
ोक	-397
▁आफ्नो	-398
▁गरे	-399
टक	-400
▁पुग	-401
िति	-402
▁चा	-403
ाउने	-404
रु	-405
त्व	-406
▁हि	-407
▁शि	-408
▁हजार	-409
▁जो	-410
ंक	-411
▁पहि	-412
्यो	-413
▁भारत	-414
चि	-415
ुक	-416
टर	-417
ोल	-418
ग्र	-419
▁गत	-420
▁निर्माण	-421
निक	-422
▁अहिले	-423
▁केही	-424
▁काठमाडौं	-425
ैले	-426
▁देश	-427
▁विकास	-428
▁कारण	-429
िया	-430
▁कम	-431
▁अन्त	-432
▁लग	-433
मन्त्री	-434
▁साथ	-435
▁आयो	-436
▁४	-437
देखि	-438
▁दुई	-439
▁हा	-440
डी	-441
पू	-442
मुख	-443
्ञ	-444
जी	-445
ेरै	-446
▁गा	-447
कै	-448
▁दा	-449
हरुको	-450
ताको	-451
▁रो	-452
▁शा	-453
ौँ	-454
ँदा	-455
▁यु	-456
नुभयो	-457
▁ओ	-458
र्फ	-459
▁अध्यक्ष	-460
▁हुन्	-461
बी	-462
र्च	-463
▁नगर	-464
पुर	-465
▁कुनै	-466
ूल	-467
कु	-468
ोर	-469
जन	-470
▁या	-471
▁लगा	-472
हरुले	-473
▁प्रदेश	-474
▁व्यवस्था	-475
ाउन	-476
▁अधिका	-477
▁केन्द्र	-478
▁धेरै	-479
▁स्वा	-480
▁पो	-481
ब्	-482
▁श्र	-483
नुपर्ने	-484
▁खा	-485
घि	-486
फल	-487
यत	-488
ँच	-489
ूप	-490
ारा	-491
▁आज	-492
दान	-493
म्ब	-494
▁निर्वा	-495
▁समेत	-496
वन	-497
▁रुपमा	-498
▁६	-499
▁राम	-500
ाली	-501
खा	-502
▁घर	-503
इन	-504
▁स्थानीय	-505
▁प्रधान	-506
र्ता	-507
ग्	-508
टो	-509
▁मो	-510
▁सञ्च	-511
▁गु	-512
ष्ठ	-513
हित	-514
▁चि	-515
भन्दा	-516
ेन्	-517
▁लाख	-518
स्तै	-519
यु	-520
ुन	-521
▁सकि	-522
▁सद	-523
▁कार्यालय	-524
स्य	-525
▁गाउँ	-526
▁नयाँ	-527
षय	-528
यन	-529
भाग	-530
▁विश्व	-531
मै	-532
▁भि	-533
▁जानकारी	-534
ङ्ग	-535
▁बताउ	-536
▁अवस्था	-537
▁निर्वाच	-538
▁आव	-539
मी	-540
▁बो	-541
▁सय	-542
वास	-543
▁देख	-544
▁एउ	-545
ीत	-546
▁गरेर	-547
मेर	-548
स्ट	-549
भिन्न	-550
▁प्रमुख	-551
▁बताए	-552
▁?	-553
थि	-554
▁ढ	-555
▁अनुसार	-556
लमा	-557
पी	-558
रको	-559
▁महा	-560
▁हामी	-561
▁प्रहरी	-562
▁त्यो	-563
▁समिति	-564
▁विषय	-565
▁संघ	-566
णा	-567
▁सम्बन्ध	-568
▁खु	-569
ाना	-570
श्य	-571
▁महिला	-572
सो	-573
▁आएको	-574
▁खेल	-575
▁गर्नु	-576
न्दै	-577
▁सरकारले	-578
▁राजनी	-579
्छ	-580
राज	-581
▁७	-582
▁अस	-583
▁भइ	-584
ेव	-585
▁सेवा	-586
जिक	-587
▁तय	-588
ीमा	-589
▁ल्या	-590
धा	-591
च्च	-592
▁ति	-593
▁डा	-594
स्या	-595
प्त	-596
▁कस	-597
▁पार्टी	-598
ज्ञ	-599
▁रूप	-600
जि	-601
न्ति	-602
टि	-603
▁उहाँ	-604
दुर	-605
ट्	-606
▁पहिलो	-607
वाद	-608
सन	-609
▁विभिन्न	-610
▁मन	-611
▁नेता	-612
▁भयो	-613
▁रहेका	-614
▁बढी	-615
▁सामा	-616
▁भू	-617
▁छो	-618
▁नभ	-619
वादी	-620
▁कृ	-621
▁रु	-622
▁पछि	-623
▁सहयोग	-624
▁दल	-625
▁दो	-626
इएको	-627
▁पार	-628
यर	-629
▁नाम	-630
्यान	-631
▁लेख	-632
▁औ	-633
▁कार्	-634
धन	-635
हो	-636
▁समस्या	-637
▁अब	-638
▁आयोजना	-639
र्त	-640
▁पत्र	-641
चना	-642
टना	-643
▁बज	-644
र्श	-645
सको	-646
हार	-647
▁जि	-648
र्ग	-649
▁एउटा	-650
▁राष्ट्रिय	-651
▁गर्दा	-652
नुपर्छ	-653
▁कम्प	-654
▁अप	-655
▁जी	-656
▁संस्था	-657
सं	-658
▁विद्य	-659
▁हे	-660
▁प्रयोग	-661
पाद	-662
▁सम्प	-663
▁सदस्य	-664
▁मे	-665
र्थिक	-666
▁सञ्चाल	-667
▁गो	-668
पूर्ण	-669
▁समाज	-670
विधान	-671
ेन	-672
श्यक	-673
▁व्यक्ति	-674
त्म	-675
▁आर्थिक	-676
सले	-677
▁१०	-678
▁८	-679
▁छा	-680
▁सुरु	-681
▁हुँदै	-682
हरुलाई	-683
रहेका	-684
हादुर	-685
साय	-686
▁सुर	-687
▁आइ	-688
▁मन्त्र	-689
हरूले	-690
▁अन्य	-691
र्क	-692
▁निय	-693
हरूको	-694
▁शु	-695
तामा	-696
त्त	-697
पति	-698
▁संविधान	-699
▁व्या	-700
डक	-701
िएको	-702
▁तपा	-703
ोग	-704
टन	-705
▁मानि	-706
▁उक्त	-707
ृद्ध	-708
▁भन्दै	-709
▁मुल	-710
माले	-711
▁“	-712
▁रूपमा	-713
▁बाल	-714
▁प्रधानमन्त्री	-715
▁बस	-716
▁तीन	-717
मो	-718
▁अभ	-719
▁नगरपालिका	-720
शत	-721
▁अस्	-722
▁दिने	-723
क्षण	-724
▁सक	-725
सम	-726
▁चु	-727
िर	-728
्रेस	-729
▁आफू	-730
ित्	-731
▁ठू	-732
▁बेला	-733
सकेको	-734
श्च	-735
▁गते	-736
पत	-737
▁क्षेत्रमा	-738
▁९	-739
▁भनेर	-740
▁अनि	-741
▁उनको	-742
ेष	-743
ामा	-744
▁आधार	-745
स्थ्य	-746
▁प्रतिशत	-747
ुल	-748
ड्	-749
▁कम्पनी	-750
समा	-751
पना	-752
तन्त्र	-753
▁भन्दा	-754
न्या	-755
ठक	-756
▁आवश्यक	-757
पन	-758
चा	-759
रोड	-760
स्थित	-761
▁अमेर	-762
करण	-763
▁बे	-764
▁बैंक	-765
दैन	-766
जु	-767
▁बस्	-768
▁सडक	-769
पि	-770
▁क्रम	-771
ञ्	-772
▁रुपै	-773
▁प्रव	-774
▁सम्म	-775
तृ	-776
▁प्रश	-777
▁करोड	-778
▁पोख	-779
उँ	-780
▁स्था	-781
वी	-782
यक	-783
▁मुख	-784
▁सार्व	-785
▁सू	-786
स्तु	-787
▁तह	-788
▁संग	-789
▁रि	-790
पत्र	-791
द्या	-792
▁मत	-793
▁तपाई	-794
▁बने	-795
न्स	-796
जनिक	-797
▁हाल	-798
ोष	-799
▁नेपालको	-800
▁स्वास्थ्य	-801
▁२०७	-802
▁पर्ने	-803
नुभएको	-804
भित्र	-805
▁माग	-806
▁डि	-807
सक्	-808
कम	-809
्रि	-810
▁खोज	-811
शी	-812
णय	-813
काल	-814
सद	-815
▁होइन	-816
लेको	-817
ेन्द्र	-818
▁बुझ	-819
बहादुर	-820
▁बजार	-821
▁पुन	-822
▁उत्पाद	-823
▁निर्णय	-824
न्ड	-825
बीच	-826
्यु	-827
▁मूल	-828
गरिक	-829
▁निका	-830
ुवा	-831
ेमा	-832
युक्त	-833
▁निर्वाचन	-834
▁पर्य	-835
त्या	-836
▁महिना	-837
▁सार्वजनिक	-838
▁पूर्व	-839
▁राजनीतिक	-840
▁उल्	-841
बि	-842
▁बैठक	-843
एपछि	-844
हान	-845
▁रुपैयाँ	-846
राष्ट्र	-847
ृत	-848
▁नागरिक	-849
काश	-850
ेरो	-851
▁।’	-852
धिक	-853
▁चल	-854
▁मुलुक	-855
▁दिएको	-856
न्व	-857
▁पढ	-858
▁मान	-859
▁सन्	-860
▁बाँ	-861
▁हाम्रो	-862
▁वै	-863
▁गीत	-864
▁हुनु	-865
धी	-866
र्न	-867
▁किन	-868
▁निर्देश	-869
▁अघि	-870
ख्या	-871
▁राज्य	-872
▁अन्तर्	-873
दाय	-874
▁निक	-875
र्ने	-876
▁कर्म	-877
पु	-878
▁योजना	-879
▁ले	-880
क्रिया	-881
▁लोक	-882
वै	-883
▁नेतृ	-884
सभा	-885
▁मन्त्रालय	-886
▁भनि	-887
ैं	-888
चिव	-889
▁नेपालमा	-890
लको	-891
▁प्राप्त	-892
गरी	-893
प्रति	-894
▁सम्पन्न	-895
▁पटक	-896
▁भेट	-897
▁घटना	-898
▁कार्यक्रममा	-899
▁यस्तो	-900
▁अगा	-901
▁खो	-902
न्छन्	-903
अघि	-904
▁अभि	-905
र्ड	-906
क्षक	-907
▁नेतृत्व	-908
▁टो	-909
▁सहभाग	-910
▁शिक्षा	-911
बु	-912
▁सभा	-913
▁जनता	-914
ठन	-915
▁दश	-916
▁कति	-917
▁पाइ	-918
दछ	-919
▁विद्या	-920
▁राम्रो	-921
▁ठूलो	-922
▁गाउँपालिका	-923
चारी	-924
ेष्ठ	-925
फा	-926
पताल	-927
▁पुर	-928
▁पक्ष	-929
सु	-930
राम	-931
▁व्यवसाय	-932
▁सफल	-933
▁अस्पताल	-934
ृत्य	-935
▁मुख्य	-936
ोट	-937
▁चौ	-938
ीन	-939
घा	-940
▁काठमाडौँ	-941
▁दिए	-942
▁रे	-943
सहित	-944
▁अधिकारी	-945
▁विशेष	-946
▁प्रभाव	-947
से	-948
▁जनाएको	-949
▁आएका	-950
▁सर्व	-951
▁मेरो	-952
▁थप	-953
▁उद्य	-954
▁लगानी	-955
▁विदेश	-956
▁वडा	-957
▁सम्झ	-958
वरण	-959
▁पाँच	-960
▁नी	-961
त्मक	-962
▁मैले	-963
भर	-964
क्ता	-965
▁माओ	-966
▁अर्को	-967
ृद्धि	-968
स्कृ	-969
▁मात्रै	-970
सर	-971
▁वटा	-972
थ्यो	-973
ूह	-974
▁बार	-975
ेपछि	-976
▁समु	-977
पनि	-978
▁ओली	-979
षा	-980
▁यहाँ	-981
दो	-982
▁थापा	-983
नेछ	-984
▁कर्मचारी	-985
मति	-986
ध्ये	-987
▁ऐ	-988
सँगै	-989
▁साथै	-990
▁क्रममा	-991
त्ति	-992
▁आग	-993
ंग्रेस	-994
▁सामाजिक	-995
▁,	-996
▁चार	-997
▁बनाउन	-998
म्भ	-999
▁विद्यालय	-1000
▁हामीले	-1001
कल	-1002
▁लक्ष	-1003
▁न्य	-1004
▁संर	-1005
▁लगायत	-1006
▁चाह	-1007
▁परिवार	-1008
तमा	-1009
▁अझ	-1010
▁यी	-1011
व्य	-1012
▁लागेको	-1013
▁ठाउँ	-1014
▁गर्छ	-1015
चित्र	-1016
पर	-1017
हरुमा	-1018
▁रकम	-1019
▁कांग्रेस	-1020
▁मध	-1021
▁उठ	-1022
▁भएर	-1023
▁सुरक्षा	-1024
मार	-1025
त्ता	-1026
नका	-1027
र्थी	-1028
▁पि	-1029
▁१५	-1030
▁सङ्	-1031
▁१९	-1032
▁उल्लेख	-1033
▁छन	-1034
अनु	-1035
▁कृष	-1036
र्ट	-1037
▁फो	-1038
्री	-1039
स्रो	-1040
▁सक्छ	-1041
▁इन्	-1042
ेज	-1043
निधि	-1044
▁क्या	-1045
▁गएको	-1046
▁युवा	-1047
रोध	-1048
▁अवस्थामा	-1049
वेद	-1050
टै	-1051
ञ्ज	-1052
▁अर्थ	-1053
▁साम	-1054
▁एमाले	-1055
नाव	-1056
▁'	-1057
▁मृत्य	-1058
▁श्रेष्ठ	-1059
एन	-1060
बर	-1061
न्तर	-1062
ष्ण	-1063
न्दोल	-1064
दर्श	-1065
▁उपा	-1066
्नु	-1067
डियो	-1068
▁साल	-1069
▁१२	-1070
▁हुँदा	-1071
▁श्री	-1072
▁एव	-1073
▁यसको	-1074
ीर	-1075
लाइ	-1076
बारे	-1077
▁विषयमा	-1078
▁उत्पादन	-1079
हरूलाई	-1080
▁अमेरिका	-1081
▁बनाउने	-1082
▁पै	-1083
▁आउने	-1084
▁उपचार	-1085
▁जे	-1086
▁नहु	-1087
▁नग	-1088
समेत	-1089
▁–	-1090
▁मन्त्री	-1091
▁व्याप	-1092
राष्ट्रिय	-1093
साद	-1094
▁परेको	-1095
ल्ला	-1096
▁हर	-1097
▁सञ्चालन	-1098
▁घोष	-1099
▁हुनेछ	-1100
तर	-1101
नाइ	-1102
▁नीति	-1103
ल्या	-1104
न्ने	-1105
▁चलचित्र	-1106
▁ता	-1107
▁क्र	-1108
▁उपल	-1109
जक	-1110
▁जारी	-1111
्वास	-1112
▁मृत्यु	-1113
▁प्रतियोग	-1114
▁मौ	-1115
म्बर	-1116
▁उद्योग	-1117
▁अगाडि	-1118
▁समूह	-1119
क्स	-1120
▁पद	-1121
सन्	-1122
▁जाने	-1123
वारी	-1124
▁जित	-1125
▁तत्	-1126
▁टोली	-1127
▁खे	-1128
र्मा	-1129
▁उहाँले	-1130
बल	-1131
▁फिल्	-1132
▁छि	-1133
ेड	-1134
▁११	-1135
दार	-1136
▁परिव	-1137
ामी	-1138
ाएको	-1139
तर्फ	-1140
हाल	-1141
▁खर्च	-1142
▁अभिय	-1143
▁आन्दोल	-1144
तको	-1145
विधि	-1146
पो	-1147
▁करि	-1148
मित	-1149
▁भारतीय	-1150
▁बन्द	-1151
टमा	-1152
▁अन	-1153
चाल	-1154
▁अद	-1155
ल्लो	-1156
▁सकिन्छ	-1157
▁जन्	-1158
र्फत	-1159
ेकी	-1160
▁सक्ने	-1161
▁बी	-1162
▁प्रकाश	-1163
▁उद्	-1164
▁निकै	-1165
▁जीवन	-1166
रुद्ध	-1167
▁दोस्रो	-1168
▁परी	-1169
ोधन	-1170
▁समयमा	-1171
▁दुर्	-1172
मको	-1173
▁गुरु	-1174
▁जुन	-1175
▁मलाई	-1176
ीका	-1177
माथि	-1178
र्या	-1179
▁आउ	-1180
▁छल	-1181
▁आयोग	-1182
▁प्रहरीले	-1183
▁पौ	-1184
▁भएकाले	-1185
धारण	-1186
▁सां	-1187
▁तयार	-1188
गायत	-1189
▁यात्र	-1190
▁बाहि	-1191
िता	-1192
सन्धान	-1193
लग	-1194
ग्रह	-1195
▁पोखरा	-1196
▁जोड	-1197
तिर	-1198
▁उच्च	-1199
▁भ्रम	-1200
▁छलफल	-1201
▁|	-1202
▁अफ	-1203
लब	-1204
अनुसार	-1205
▁अध्ययन	-1206
▁२०१	-1207
▁घोषणा	-1208
▁चर्च	-1209
राई	-1210
कर्ता	-1211
▁कला	-1212
च्छ	-1213
▁तयारी	-1214
▁पत्रकार	-1215
▁शक्ति	-1216
▁उपलब्	-1217
▁अधिकार	-1218
▁रोज	-1219
▁भाग	-1220
▁अनुसन्धान	-1221
▁न्या	-1222
हुन्छ	-1223
▁तपाईं	-1224
▁बर्ष	-1225
▁पठ	-1226
▁विक	-1227
्दै	-1228
▁...	-1229
मन	-1230
झा	-1231
▁भएपछि	-1232
तिमा	-1233
▁बताउनुभयो	-1234
▁भइरहेको	-1235
छा	-1236
▁जस्तो	-1237
▁दे	-1238
▁गर्नुपर्ने	-1239
▁महान	-1240
थे	-1241
ङ्क	-1242
यात	-1243
▁छु	-1244
डेल	-1245
ानो	-1246
▁कानु	-1247
▁फि	-1248
▁पक्र	-1249
▁कार्या	-1250
▁प्रत्य	-1251
्ना	-1252
▁आरो	-1253
भव	-1254
नामा	-1255
वल	-1256
▁माओवादी	-1257
▁भित्र	-1258
▁मूल्य	-1259
ट्ट	-1260
▁५०	-1261
▁पानी	-1262
▁महत्व	-1263
▁ट्र	-1264
कपा	-1265
▁भु	-1266
▁ग्र	-1267
वर	-1268
ेरि	-1269
सिक	-1270
वाह	-1271
▁बजेट	-1272
▁मानिस	-1273
▁त्यसैले	-1274
धिका	-1275
▁होला	-1276
▁अदाल	-1277
इन्	-1278
नले	-1279
▁कृषि	-1280
▁परिवर्त	-1281
रक	-1282
▁लिएर	-1283
मिक	-1284
▁त्यहाँ	-1285
ल्ने	-1286
काली	-1287
र्स	-1288
▁प्रक्रिया	-1289
शु	-1290
▁विज्ञ	-1291
▁विस्त	-1292
▁पी	-1293
▁प्रस्तु	-1294
ेन्ट	-1295
▁सी	-1296
▁पक्राउ	-1297
मिका	-1298
तिहा	-1299
जो	-1300
▁बस्ने	-1301
ृह	-1302
▁कार्यान्व	-1303
▁फा	-1304
▁राष्ट्रपति	-1305
▁यसै	-1306
▁सरकारी	-1307
र्वा	-1308
▁प्रतिनिधि	-1309
▁यही	-1310
▁बताएका	-1311
▁त्यही	-1312
लु	-1313
तले	-1314
▁विद्यार्थी	-1315
▁योग	-1316
स्ताव	-1317
▁लामो	-1318
,’	-1319
▁:	-1320
ंश	-1321
▁स्थापना	-1322
▁विभाग	-1323
संग	-1324
▁अभियान	-1325
▁२५	-1326
▁प्रदान	-1327
यी	-1328
ष्टि	-1329
▁दिएका	-1330
लेर	-1331
ैनिक	-1332
सम्	-1333
▁भनेको	-1334
▁चीन	-1335
▁ब्या	-1336
▁सबैभन्दा	-1337
▁भ्रमण	-1338
▁ज्ञ	-1339
लामा	-1340
▁देखिन्छ	-1341
▁रहे	-1342
▁सचिव	-1343
तिको	-1344
▁छुट	-1345
तम	-1346
▁गरिने	-1347
▁अर्ब	-1348
▁कार	-1349
▁हरेक	-1350
ंह	-1351
हित्य	-1352
पटक	-1353
▁कसरी	-1354
▁आधारमा	-1355
ालिका	-1356
▁निर	-1357
▁फिल्म	-1358
स्क	-1359
ारि	-1360
▁सरकारको	-1361
▁निकाय	-1362
▁दुवै	-1363
प्रसाद	-1364
▁कर	-1365
ध्यक्ष	-1366
▁त्यस्तै	-1367
▁गौ	-1368
र्जा	-1369
▁सूचना	-1370
▁विज	-1371
▁एवं	-1372
्दा	-1373
द्दा	-1374
▁उम्म	-1375
▁पुगेको	-1376
सिया	-1377
▁बाटो	-1378
▁जु	-1379
▁आँ	-1380
▁प्रशा	-1381
कर्ष	-1382
▁पाउने	-1383
लगायत	-1384
ेम	-1385
▁सन्द	-1386
▁अरु	-1387
नाले	-1388
▁-	-1389
▁चरण	-1390
▁नं	-1391
▁नेकपा	-1392
रत	-1393
▁शुरु	-1394
▁बारेमा	-1395
▁थाले	-1396
▁रोजग	-1397
भू	-1398
वेश	-1399
▁त्यसको	-1400
▁पैसा	-1401
▁चुनाव	-1402
▁धा	-1403
▁प्रस्ताव	-1404
▁दक्ष	-1405
▁अधिक	-1406
▁समुदाय	-1407
▁स्ट	-1408
▁३०	-1409
▁रोग	-1410
▁आफ्ना	-1411
कको	-1412
दर	-1413
▁म्या	-1414
▁बनेको	-1415
▁सोच	-1416
▁पर्यटक	-1417
▁अन्तर्राष्ट्रिय	-1418
▁सहभागी	-1419
चित	-1420
▁गोल	-1421
▁साहित्य	-1422
▁चला	-1423
▁ब्य	-1424
▁थिएन	-1425
यम	-1426
त्री	-1427
▁मान्छ	-1428
▁मुद्दा	-1429
▁समाचार	-1430
▁फाइ	-1431
▁हुँदैन	-1432
▁खेला	-1433
▁थाल	-1434
▁नेपालले	-1435
▁प्रच	-1436
मध्ये	-1437
▁उनलाई	-1438
▁पूरा	-1439
ैँ	-1440
▁नियन्त्र	-1441
पान	-1442
▁देव	-1443
▁बिक	-1444
तार	-1445
▁पछिल्लो	-1446
▁यस्तै	-1447
उनु	-1448
▁सहमति	-1449
स्कार	-1450
▁पूर्ण	-1451
▁करिब	-1452
▁राई	-1453
ढी	-1454
▁हत्या	-1455
▁बिहान	-1456
▁अति	-1457
▁थाहा	-1458
▁ई	-1459
▁डे	-1460
▁व्यवस्थापन	-1461
▁लिन	-1462
रिया	-1463
▁दर	-1464
तो	-1465
▁शे	-1466
▁सम्झौ	-1467
▁१३	-1468
▁देखिएको	-1469
▁यस्ता	-1470
▁आरोप	-1471
▁परेका	-1472
▁उपलब्ध	-1473
र्ति	-1474
दिन	-1475
ताका	-1476
एस	-1477
के	-1478
▁यसले	-1479
लव	-1480
▁पौडेल	-1481
पक्ष	-1482
▁फुट	-1483
कमा	-1484
न्तिम	-1485
ाउनु	-1486
सकेका	-1487
▁स्रो	-1488
▁आफ्नै	-1489
▁मानव	-1490
▁संघीय	-1491
जित	-1492
▁चाल	-1493
▁गण	-1494
▁स्प	-1495
▁सम्भाव	-1496
श्व	-1497
ल्न	-1498
कम्प	-1499
▁पार्ट	-1500
▁१४	-1501
पक	-1502
सका	-1503
▁उम्मेद	-1504
▁अन्तिम	-1505
▁विश्वास	-1506
▁आमा	-1507
▁भूमिका	-1508
▁ताल	-1509
▁१८	-1510
▁प्रया	-1511
परि	-1512
ते	-1513
▁भद	-1514
▁नभएको	-1515
िण	-1516
▁प्रदर्श	-1517
▁भो	-1518
उँदै	-1519
▁तो	-1520
▁अर	-1521
र्जन	-1522
▁खेलमा	-1523
तरण	-1524
▁आगामी	-1525
▁संसद	-1526
लले	-1527
▁शर्मा	-1528
▁प्रश्न	-1529
▁देउ	-1530
▁केन्द्रीय	-1531
▁पर्छ	-1532
▁वर्षको	-1533
त्तिक	-1534
वेदन	-1535
शि	-1536
▁अझै	-1537
विधा	-1538
▁भट्ट	-1539
वान	-1540
▁परिवर्तन	-1541
▁नेपालका	-1542
▁नियन्त्रण	-1543
▁मै	-1544
न्ट	-1545
▁कै	-1546
▁विमान	-1547
▁दृ	-1548
ल्प	-1549
विद्य	-1550
ज्य	-1551
▁सहित	-1552
▁खाने	-1553
▁आदि	-1554
▁त्यसै	-1555
▁नम्बर	-1556
▁संख्या	-1557
▁गुरुङ	-1558
re	-1559
▁सामान्य	-1560
द्वार	-1561
डित	-1562
▁१६	-1563
▁पर्व	-1564
हरूमा	-1565
▁हेर्	-1566
यण	-1567
▁बाहिर	-1568
लिक	-1569
कर्म	-1570
▁यति	-1571
▁छोरा	-1572
ैर	-1573
▁दी	-1574
▁सुन	-1575
▁सम्मेल	-1576
▁नारा	-1577
▁टा	-1578
▁मना	-1579
▁विद्यु	-1580
सक्ने	-1581
▁प्रण	-1582
काम	-1583
▁हात	-1584
▁राजधान	-1585
▁पश्च	-1586
▁भई	-1587
शील	-1588
▁लु	-1589
ल्क	-1590
▁!	-1591
▁बलि	-1592
▁संयो	-1593
▁शान्ति	-1594
रुप	-1595
्युनि	-1596
▁जिम्म	-1597
तावरण	-1598
िकी	-1599
ाल्	-1600
क्का	-1601
वासी	-1602
मन्त्र	-1603
▁सात	-1604
ग्गा	-1605
ढा	-1606
▁भण्ड	-1607
▁चाहि	-1608
कालीन	-1609
ंगल	-1610
▁विस्तार	-1611
बेला	-1612
▁व्यापार	-1613
▁सोम	-1614
▁टि	-1615
▁स्थानमा	-1616
साइ	-1617
ँड	-1618
घटना	-1619
▁प्रस्तुत	-1620
▁निम्	-1621
▁पहिले	-1622
धु	-1623
▁बाट	-1624
▁ध्यान	-1625
▁बढेको	-1626
▁ऋ	-1627
▁पदा	-1628
▁तिम	-1629
र्ज	-1630
ध्यम	-1631
रीको	-1632
हन	-1633
▁न्याय	-1634
▁संस्कृ	-1635
ुरो	-1636
▁वातावरण	-1637
होस्	-1638
▁दू	-1639
▁शै	-1640
ियन	-1641
ंगा	-1642
▁बजारमा	-1643
ुरुष	-1644
▁भिडियो	-1645
▁प्रवेश	-1646
▁गठन	-1647
कुमार	-1648
▁सुधार	-1649
▁निर्देशन	-1650
▁तर्फ	-1651
▁फर्	-1652
▁टु	-1653
▁धर्म	-1654
बद्ध	-1655
क्षित	-1656
▁संयुक्त	-1657
सान	-1658
देव	-1659
▁सहज	-1660
▁शुक्र	-1661
द्धा	-1662
▁छैनन्	-1663
म्मा	-1664
क्क	-1665
▁खान	-1666
णि	-1667
▁छौं	-1668
▁सम्मान	-1669
▁कम्युनि	-1670
किएको	-1671
संघ	-1672
▁क्षम	-1673
▁गति	-1674
▁दर्श	-1675
▁गृह	-1676
कोट	-1677
▁बहु	-1678
▁साँ	-1679
नाथ	-1680
▁दक्षिण	-1681
▁घरमा	-1682
▁वितरण	-1683
▁जल	-1684
▁जन्म	-1685
▁दर्ता	-1686
▁आग्रह	-1687
▁ठाउँमा	-1688
लै	-1689
विक	-1690
▁जस्ता	-1691
▁गि	-1692
सलाई	-1693
▁एस	-1694
▁सांसद	-1695
ताले	-1696
पित	-1697
ँदैन	-1698
▁अपरा	-1699
उँछ	-1700
▁याद	-1701
सरमा	-1702
स्थिति	-1703
▁झा	-1704
क्रमण	-1705
▁गरिरहेको	-1706
▁दुर्घटना	-1707
▁गर्दछ	-1708
▁तथ	-1709
ून	-1710
▁फरक	-1711
▁भनाइ	-1712
▁सुविधा	-1713
▁उत्तर	-1714
▁भूकम्प	-1715
▁असार	-1716
▁पर्यटन	-1717
▁मान्छे	-1718
▁हुन्छन्	-1719
▁प्रमाण	-1720
▁नजिक	-1721
लाको	-1722
▁अन्तर	-1723
▁कार्यान्वयन	-1724
क्टर	-1725
देश्य	-1726
ेलि	-1727
▁पुरुष	-1728
▁भाषा	-1729
हेक	-1730
स्त्र	-1731
▁त्रि	-1732
ब्द	-1733
▁जग्गा	-1734
▁जनताको	-1735
▁सम्झौता	-1736
▁यसरी	-1737
▁कारो	-1738
कृत	-1739
▁बाँकी	-1740
▁बताउँ	-1741
▁दैनिक	-1742
एकी	-1743
▁स्वी	-1744
▁कवि	-1745
▁मन्द	-1746
▁भै	-1747
▁एन	-1748
▁त्यसपछि	-1749
्रै	-1750
▁त्यति	-1751
▁गरा	-1752
▁सीमा	-1753
पय	-1754
ङको	-1755
खु	-1756
▁शाखा	-1757
▁अर्था	-1758
▁जिल्लामा	-1759
▁तुल	-1760
▁०	-1761
▁पराज	-1762
मे	-1763
लाग	-1764
▁शनि	-1765
दू	-1766
▁२१	-1767
▁बालब	-1768
▁सवारी	-1769
▁१७	-1770
▁अवसर	-1771
ेप	-1772
▁भदौ	-1773
▁तत्काल	-1774
सम्बन्ध	-1775
▁सञ्चार	-1776
▁भर्	-1777
▁प्रेम	-1778
चान	-1779
र्भ	-1780
▁संरक्षण	-1781
▁दाहाल	-1782
▁यसलाई	-1783
▁बुध	-1784
▁कतिपय	-1785
▁नहुने	-1786
▁फेरि	-1787
नाको	-1788
▁विचार	-1789
▁व्यक्त	-1790
▁उनका	-1791
यार	-1792
निर्	-1793
▁तिन	-1794
▁अधिकृत	-1795
▁संश	-1796
▁।”	-1797
▁धन	-1798
कार्य	-1799
िकित्	-1800
षण	-1801
▁लक्ष्य	-1802
द्वारा	-1803
▁कायम	-1804
▁आत्म	-1805
▁कमा	-1806
▁कात्तिक	-1807
▁जस्तै	-1808
▁कहिले	-1809
▁जीव	-1810
▁चित	-1811
िकेट	-1812
स्ती	-1813
▁रहने	-1814
in	-1815
▁तामा	-1816
▁बीच	-1817
▁गरिरहेका	-1818
▁प्रविधि	-1819
▁गर्छन्	-1820
▁विगत	-1821
▁लाग्ने	-1822
▁कलाकार	-1823
▁सिंह	-1824
गो	-1825
▁प्रयास	-1826
▁चिनि	-1827
▁असोज	-1828
▁स्त	-1829
▁नाममा	-1830
टल	-1831
▁लाई	-1832
▁आन्दोलन	-1833
▁भन्छन्	-1834
तबार	-1835
▁ऊ	-1836
▁मध्य	-1837
र्‍	-1838
पको	-1839
००	-1840
ल्य	-1841
▁जति	-1842
▁घट	-1843
▁सम्भावना	-1844
▁शुभ	-1845
▁कृष्ण	-1846
▁तेस	-1847
▁संयोजक	-1848
▁बालबालिका	-1849
कले	-1850
▁अमेरिकी	-1851
▁दिनुभयो	-1852
▁कथा	-1853
ठा	-1854
चालन	-1855
डान	-1856
▁चिकित्	-1857
▁घु	-1858
▁गरेपछि	-1859
▁भण्डारी	-1860
▁आई	-1861
▁लो	-1862
▁सकिने	-1863
▁जब	-1864
राब	-1865
▁व्यवसायी	-1866
▁गठ	-1867
▁वृद्धि	-1868
▁देशको	-1869
▁खेत	-1870
नेट	-1871
▁शिक्षक	-1872
▁प्रतियोगि	-1873
्ले	-1874
▁गर्नुभएको	-1875
पानी	-1876
ालले	-1877
▁खेलाडी	-1878
▁उम्मेदवार	-1879
मत	-1880
धे	-1881
डिया	-1882
▁भन्नुभयो	-1883
भु	-1884
▁सकेको	-1885
▁यसअघि	-1886
▁प्रणाली	-1887
शाख	-1888
▁लिने	-1889
▁निजी	-1890
▁लगायतका	-1891
▁२२	-1892
▁क्षेत्रको	-1893
▁विश्वक	-1894
सित	-1895
▁विवाद	-1896
▁उमेर	-1897
गरपालिका	-1898
▁ऐन	-1899
▁लिएको	-1900
▁राजा	-1901
सचिव	-1902
▁निरन्तर	-1903
कारा	-1904
नो	-1905
ेता	-1906
▁सम्ब	-1907
▁यसमा	-1908
▁क्लब	-1909
▁तेस्रो	-1910
स्थल	-1911
▁किसान	-1912
▁मंगल	-1913
मार्ग	-1914
▁औष	-1915
ग्री	-1916
▁गुण	-1917
योजना	-1918
▁च्या	-1919
▁गरिन्छ	-1920
▁सोमबार	-1921
▁बन्न	-1922
▁शुक्रबार	-1923
▁२४	-1924
▁आम	-1925
▁फै	-1926
▁सङ्घ	-1927
हल	-1928
्वा	-1929
▁बजे	-1930
▁राख्ने	-1931
▁थालेको	-1932
▁माथि	-1933
▁टिम	-1934
ालि	-1935
▁श्रम	-1936
च्चा	-1937
▁अन्त्य	-1938
▁अभाव	-1939
▁लाग्छ	-1940
णी	-1941
▁बनाएको	-1942
▁गराउने	-1943
ंका	-1944
▁ढु	-1945
▁महत्वपूर्ण	-1946
▁सम्बन्धित	-1947
कलन	-1948
▁भौ	-1949
▁साथी	-1950
▁आश	-1951
इरा	-1952
▁कले	-1953
▁गर्नुपर्छ	-1954
▁पुरा	-1955
▁कानुन	-1956
▁अवसरमा	-1957
सम्बन्धी	-1958
▁सर्	-1959
▁यात्रा	-1960
ेवारी	-1961
▁सोही	-1962
वे	-1963
▁यादव	-1964
▁आफु	-1965
▁पुनः	-1966
▁मिल्	-1967
▁गैर	-1968
आर	-1969
▁शब्द	-1970
मले	-1971
तै	-1972
फाइ	-1973
न्त्रिक	-1974
ित्व	-1975
▁प्राथ	-1976
▁उद्देश्य	-1977
बाही	-1978
▁सम्पूर्ण	-1979
श्चित	-1980
▁जसले	-1981
▁शरी	-1982
▁हिमा	-1983
▁संरचना	-1984
▁दिव	-1985
▁दिइ	-1986
▁सहकारी	-1987
▁एज	-1988
▁एका	-1989
ाउँदै	-1990
▁एकता	-1991
▁बच	-1992
▁प्रचण्ड	-1993
▁बुधबार	-1994
▁टे	-1995
▁काँग	-1996
▁बुद्ध	-1997
भो	-1998
स्पर्	-1999
▁रहेछ	-2000
सव	-2001
▁खरि	-2002
▁देशमा	-2003
▁इतिहा	-2004
▁घा	-2005
रेल	-2006
लित	-2007
▁मधेश	-2008
▁बिक्री	-2009
▁कान	-2010
ची	-2011
ोरी	-2012
▁प्राथमिक	-2013
प्ता	-2014
▁बताउँछन्	-2015
ष्टा	-2016
▁जिम्मेवारी	-2017
▁भारतको	-2018
लर	-2019
ोत्	-2020
▁स्रोत	-2021
शन	-2022
▁पूर्वा	-2023
▁विवरण	-2024
▁पहिचान	-2025
er	-2026
▁हेर	-2027
िल्लो	-2028
▁औं	-2029
▁आइतबार	-2030
▁कारोबार	-2031
ध्या	-2032
टु	-2033
▁पुस्त	-2034
कारात्मक	-2035
▁२०६	-2036
▁हस्ता	-2037
▁फे	-2038
▁काँग्रेस	-2039
▁रोजगारी	-2040
त्कार	-2041
▁प्रशासन	-2042
▁ठा	-2043
▁विरोध	-2044
▁कार्की	-2045
▁स्वतन्त्र	-2046
▁याता	-2047
चार्य	-2048
▁ओलीले	-2049
▁क्षति	-2050
▁२८	-2051
▁कसै	-2052
▁नदि	-2053
ंसा	-2054
▁खड्	-2055
▁राजनीति	-2056
▁प्रकार	-2057
डो	-2058
एम	-2059
षद्	-2060
▁आवश्यकता	-2061
दु	-2062
▁गाडी	-2063
▁भाव	-2064
▁प्रतिस्पर्	-2065
▁यौ	-2066
▁सामु	-2067
▁बनाएर	-2068
▁पृ	-2069
▁खरिद	-2070
▁पाएको	-2071
▁किलो	-2072
▁भट्टराई	-2073
▁अन्तर्गत	-2074
लग्न	-2075
▁समाधान	-2076
न्थ्यो	-2077
▁स्पष्ट	-2078
▁साउन	-2079
वाट	-2080
▁वन	-2081
▁सिर्	-2082
▁खुला	-2083
र्‍या	-2084
▁निर्देशक	-2085
▁सन्त	-2086
▁गराउन	-2087
▁संसार	-2088
▁बाध्य	-2089
ीकरण	-2090
फो	-2091
▁पुग्ने	-2092
▁जनाको	-2093
तान्त्रिक	-2094
ेश्व	-2095
धिकरण	-2096
कृष्ट	-2097
लका	-2098
▁अग्र	-2099
▁सँग	-2100
on	-2101
▁घाइ	-2102
▁देखा	-2103
▁२७	-2104
▁पूजा	-2105
▁पारि	-2106
▁शनिबार	-2107
▁वरि	-2108
▁कुल	-2109
२०	-2110
▁केपी	-2111
▁धार	-2112
▁चर्चा	-2113
▁दाबी	-2114
▁विदेशी	-2115
ङमा	-2116
▁जिल्लाको	-2117
म्भीर	-2118
▁सुझा	-2119
सिर	-2120
▁कम्पनीले	-2121
▁दिनमा	-2122
▁वर्ग	-2123
▁आउन	-2124
▁जेठ	-2125
स्व	-2126
▁देउवा	-2127
ालको	-2128
an	-2129
चन	-2130
क्रिय	-2131
▁सुनि	-2132
▁साइ	-2133
▁हरा	-2134
▁मान्य	-2135
▁गम्भीर	-2136
▁[	-2137
▁फर्क	-2138
▁अवधि	-2139
▁केहि	-2140
▁जापान	-2141
▁यसका	-2142
▁समितिले	-2143
▁नव	-2144
▁वर्षीय	-2145
▁आफूलाई	-2146
▁दिनु	-2147
▁पेश	-2148
दे	-2149
▁बला	-2150
▁द्व	-2151
टे	-2152
▁ज्यान	-2153
कर्मी	-2154
▁खबर	-2155
▁प्रत्येक	-2156
देशिक	-2157
▁प्राधिकरण	-2158
हे	-2159
▁राख्न	-2160
▁आठ	-2161
▁सभापति	-2162
रामी	-2163
▁संशोधन	-2164
▁आकर्ष	-2165
▁संलग्न	-2166
▁भवन	-2167
▁२०७५	-2168
ष्य	-2169
▁संगीत	-2170
न्ज	-2171
▁अहिलेसम्म	-2172
▁कोइरा	-2173
al	-2174
▁अत्य	-2175
न्दु	-2176
▁गर्नुभयो	-2177
▁शहर	-2178
▁४०	-2179
▁भी	-2180
▁पार्टीको	-2181
▁छोरी	-2182
काे	-2183
योजन	-2184
▁माध्यम	-2185
पद	-2186
रले	-2187
म्परा	-2188
ेसम्म	-2189
थी	-2190
▁परीक्षा	-2191
न्दी	-2192
▁२९	-2193
कृति	-2194
▁प्रावि	-2195
▁२३	-2196
सद्	-2197
मात्र	-2198
▁राखेर	-2199
▁भन्न	-2200
▁त्यस्तो	-2201
न्तरण	-2202
▁कलेज	-2203
▁मधेस	-2204
▁भएन	-2205
▁परिण	-2206
▁सिर्जना	-2207
▁चै	-2208
▁अरू	-2209
▁क्षमता	-2210
▁प्रशि	-2211
न्वय	-2212
▁उपाध्यक्ष	-2213
▁घण्	-2214
▁पीडित	-2215
▁कक्षा	-2216
▁बसेको	-2217
द्र	-2218
▁सजि	-2219
▁अनुभव	-2220
▁मं	-2221
पूर्व	-2222
विरुद्ध	-2223
पमा	-2224
▁भक्त	-2225
▁त्यसलाई	-2226
▁उसले	-2227
धेयक	-2228
ल्दै	-2229
▁ऋण	-2230
▁मंगलबार	-2231
स्थान	-2232
▁परम्परा	-2233
▁ग्रा	-2234
▁समितिको	-2235
▁निर्वाचनमा	-2236
▁प्रजा	-2237
▁ठूला	-2238
▁बह	-2239
▁राजधानी	-2240
मिट	-2241
▁भइसकेको	-2242
▁खास	-2243
▁चुन	-2244
वसाय	-2245
सरी	-2246
▁सम्बोधन	-2247
▁पुरस्कार	-2248
▁क्रिकेट	-2249
▁प्रदर्शन	-2250
▁मनो	-2251
ानि	-2252
▁वर्षमा	-2253
▁बन्ने	-2254
▁२६	-2255
सीले	-2256
लेका	-2257
▁बर्	-2258
▁बम	-2259
▁घाइते	-2260
▁लै	-2261
▁विवाह	-2262
▁कसैले	-2263
▁सपना	-2264
बाटै	-2265
▁छिन्	-2266
▁पाल	-2267
▁बाबु	-2268
▁विधेयक	-2269
▁२०७४	-2270
ेलु	-2271
हरण	-2272
▁हरि	-2273
त्रा	-2274
▁पुगेका	-2275
▁प्रतियोगिता	-2276
▁भ्र	-2277
▁२००	-2278
ौती	-2279
फ्	-2280
▁वे	-2281
्रे	-2282
डमा	-2283
▁लागू	-2284
▁शेयर	-2285
▁बैठकले	-2286
सीको	-2287
▁युव	-2288
▁आफूले	-2289
▁हट	-2290
▁कोष	-2291
▁पहा	-2292
▁आजको	-2293
▁समन्वय	-2294
▁यदि	-2295
▁वीर	-2296
▁पश्चिम	-2297
▁प्राविधिक	-2298
रीय	-2299
▁बैंकले	-2300
▁माया	-2301
र्मिक	-2302
▁लागी	-2303
▁अख	-2304
मेन्ट	-2305
ल्ट	-2306
▁आँखा	-2307
▁यातायात	-2308
मका	-2309
▁इन्टर	-2310
▁सानो	-2311
▁वित्त	-2312
छु	-2313
न्तरिक	-2314
▁सुन्द	-2315
▁स्थापित	-2316
वटा	-2317
▁कारणले	-2318
▁उत्कृष्ट	-2319
नेर	-2320
▁संस्कृति	-2321
मती	-2322
▁क्षेत्रका	-2323
ेले	-2324
▁नाका	-2325
▁फु	-2326
सिल	-2327
▁कोरिया	-2328
ँजी	-2329
गमन	-2330
▁डो	-2331
▁बनाइ	-2332
▁अघ	-2333
▁तामाङ	-2334
हरुका	-2335
▁संक	-2336
गुन	-2337
▁जम	-2338
▁थापाले	-2339
▁एकै	-2340
▁प्रतिष्ठ	-2341
नुहुन्छ	-2342
▁बिही	-2343
▁पेट	-2344
▁मिला	-2345
▁कारबाही	-2346
‍यो	-2347
सिय	-2348
लीमा	-2349
▁सक्रिय	-2350
▁हामीलाई	-2351
▁आयोजित	-2352
▁सक्दैन	-2353
▁पूर्वाधार	-2354
चेत	-2355
जोर	-2356
विद्यालय	-2357
▁आन्तरिक	-2358
लाले	-2359
साब	-2360
सँगको	-2361
▁संगठन	-2362
▁व्यवहार	-2363
▁अंक	-2364
▁सश	-2365
▁सर्वो	-2366
▁महासंघ	-2367
लाल	-2368
थो	-2369
▁भाइ	-2370
▁पाइन्छ	-2371
▁सालमा	-2372
ज्ञान	-2373
बाइ	-2374
गु	-2375
क्न	-2376
▁समितिका	-2377
्यास	-2378
▁कर्ण	-2379
स्कृतिक	-2380
▁सम्बन्धी	-2381
कन	-2382
▁अधिकांश	-2383
▁माघ	-2384
तालाई	-2385
▁एक्	-2386
▁छाड	-2387
तियार	-2388
खर	-2389
▁नपा	-2390
▁चितवन	-2391
▁जोख	-2392
रीमा	-2393
▁सुझाव	-2394
प्प	-2395
▁बैठकमा	-2396
▁"	-2397
ल्लाह	-2398
▁कुन	-2399
ण्डा	-2400
▁त्यसमा	-2401
▁बन्	-2402
▁निष्	-2403
अन्त	-2404
▁मन्त्रालयले	-2405
वाज	-2406
▁फुटबल	-2407
▁अपराध	-2408
▁फेस	-2409
▁ट्रा	-2410
▁प्रभावित	-2411
नेपाल	-2412
▁मज	-2413
।’	-2414
▁कार्यक्रमको	-2415
ारो	-2416
दल	-2417
वाल	-2418
तीमा	-2419
▁नसकेको	-2420
’,	-2421
ad	-2422
लन	-2423
▁सकेन	-2424
िएका	-2425
▁हुनुपर्छ	-2426
▁तिहार	-2427
▁आदेश	-2428
▁सुना	-2429
वाफ	-2430
▁यौन	-2431
आई	-2432
▁मार्फत	-2433
हत	-2434
▁जरु	-2435
र्चा	-2436
▁पराजित	-2437
▁गरेकी	-2438
इँ	-2439
दानी	-2440
▁कार्यकर्ता	-2441
▁योगदान	-2442
चारिक	-2443
▁मिति	-2444
▁लाग्	-2445
सस	-2446
▁जरुरी	-2447
यता	-2448
निर्माण	-2449
धीश	-2450
▁भनी	-2451
▁कामदार	-2452
▁असर	-2453
लाका	-2454
▁तहको	-2455
▁खड्का	-2456
▁खाना	-2457
▁सम्बन्धमा	-2458
▁उनीहरू	-2459
▁पक्षमा	-2460
श्	-2461
कुल	-2462
▁उदा	-2463
▁अधि	-2464
▁कोही	-2465
▁थिइन्	-2466
▁चरणमा	-2467
▁वास्त	-2468
▁समृद्धि	-2469
▁डु	-2470
▁बोक	-2471
▁लक्ष्	-2472
▁सहा	-2473
यौं	-2474
ar	-2475
गी	-2476
▁एउटै	-2477
▁गुना	-2478
▁तथ्या	-2479
णिज्य	-2480
▁नौ	-2481
▁धार्मिक	-2482
▁समर्थ	-2483
▁नारायण	-2484
▁हुनुपर्ने	-2485
▁ज्ञान	-2486
▁काममा	-2487
▁घण्टा	-2488
▁प्रतिस्पर्धा	-2489
▁देशका	-2490
▁शाह	-2491
▁जोडि	-2492
▁चिनियाँ	-2493
ृत्ति	-2494
▁सञ्ज	-2495
▁तालिम	-2496
▁सहभागिता	-2497
▁नदी	-2498
▁गठबन्ध	-2499
▁वस्तु	-2500
▁राखिएको	-2501
घाटन	-2502
लत	-2503
▁अंग	-2504
▁धु	-2505
▁भवि	-2506
▁सध	-2507
ारमा	-2508
▁विरा	-2509
▁कमजोर	-2510
▁साँझ	-2511
पे	-2512
ममा	-2513
▁श्रेष्ठले	-2514
▁तहमा	-2515
▁स्थिति	-2516
▁रमा	-2517
▁आम्	-2518
▁निर्वाचित	-2519
▁रू	-2520
▁उपत्य	-2521
ेली	-2522
▁बिरामी	-2523
▁गुणस्त	-2524
न्छु	-2525
िनी	-2526
रीले	-2527
▁किसि	-2528
▁बिहीबार	-2529
▁स्थित	-2530
▁कम्	-2531
▁राखेको	-2532
▁दृष्टि	-2533
▁विश्वविद्यालय	-2534
▁जोखिम	-2535
▁सर्वोच्च	-2536
ल्याण्ड	-2537
रीक्षक	-2538
तीय	-2539
अन्तर्	-2540
▁पुष्	-2541
र्तमान	-2542
▁ल्याउन	-2543
▁अभिन	-2544
▁गरिएका	-2545
लीको	-2546
▁शी	-2547
क्षर	-2548
▁मतदान	-2549
▁अस्पतालमा	-2550
▁चौध	-2551
▁कार्यकारी	-2552
▁हुँ	-2553
▁सिफ	-2554
पोर्ट	-2555
at	-2556
▁कस्तो	-2557
▁लाइ	-2558
याधीश	-2559
▁ब्रा	-2560
▁ची	-2561
्यू	-2562
▁जवाफ	-2563
मार्फत	-2564
▁प्रचार	-2565
▁पार्टीका	-2566
▁हक	-2567
▁क्रा	-2568
▁बोर्ड	-2569
र्द	-2570
र्इ	-2571
डे	-2572
नाई	-2573
▁वित्तीय	-2574
▁नप	-2575
जर	-2576
▁आशा	-2577
▁पोखरेल	-2578
न्ता	-2579
▁चिकित्सक	-2580
▁मन्दिर	-2581
▁बराब	-2582
▁भौतिक	-2583
▁गुमा	-2584
▁तत्कालीन	-2585
▁उनीहरु	-2586
▁उद्ध	-2587
दय	-2588
▁लगाउने	-2589
रूप	-2590
▁उपत्यका	-2591
▁आए	-2592
▁जम्मा	-2593
▁अल	-2594
▁स्या	-2595
रिक	-2596
en	-2597
द्द	-2598
▁संकलन	-2599
▁कठ	-2600
तिकै	-2601
▁नर	-2602
▁आप	-2603
▁प्रत्यक्ष	-2604
▁बलात्कार	-2605
ल्यै	-2606
र्षिक	-2607
▁बच्चा	-2608
▁तर्फबाट	-2609
साथ	-2610
▁पुर्‍या	-2611
▁वैशाख	-2612
▁सेना	-2613
▁प्रतिवेदन	-2614
▁६०	-2615
▁गावि	-2616
▁पाउँ	-2617
▁गएका	-2618
▁छुट्	-2619
▁उसको	-2620
▁प्या	-2621
▁शिव	-2622
पर्क	-2623
▁अर्का	-2624
▁प्रकाशित	-2625
▁सल्लाह	-2626
▁उपभो	-2627
▁बढि	-2628
▁नसक्ने	-2629
▁नब	-2630
▁l	-2631
▁कप	-2632
▁वाम	-2633
▁रन	-2634
तः	-2635
▁यू	-2636
पुग	-2637
ामु	-2638
▁गए	-2639
साधारण	-2640
▁सिफारि	-2641
▁सुख	-2642
यिका	-2643
सल	-2644
▁रेल	-2645
थम	-2646
▁दिइएको	-2647
टको	-2648
पश्च	-2649
ज्ञा	-2650
अन्तर्गत	-2651
▁अर्थात्	-2652
▁जनताले	-2653
टनगर	-2654
▁परीक्षण	-2655
▁ढि	-2656
▁क्रिया	-2657
▁काग	-2658
▁[...	-2659
▁साह	-2660
▁माइ	-2661
▁साता	-2662
▁आचार्य	-2663
▁मले	-2664
▁हाम्रा	-2665
▁वर्षा	-2666
▁समावेश	-2667
▁नियमित	-2668
जस्ता	-2669
▁आयोजक	-2670
न्तु	-2671
▁साउ	-2672
▁सन्दर्भ	-2673
▁विप	-2674
▁नियम	-2675
िने	-2676
▁m	-2677
▁बताइएको	-2678
▁फूल	-2679
▁[...]	-2680
▁हेर्न	-2681
▁भविष्य	-2682
▁बनेका	-2683
क्ने	-2684
कला	-2685
▁सुन्दर	-2686
नेको	-2687
हरा	-2688
▁बताउँदै	-2689
▁विरुद्ध	-2690
▁निम्ति	-2691
▁ल्याएको	-2692
▁प्रभावकारी	-2693
▁तराई	-2694
र्ख	-2695
ाइएको	-2696
ित्त	-2697
▁बढ्ने	-2698
दाता	-2699
▁अनुमान	-2700
ारम्भ	-2701
▁जहाँ	-2702
▁धारणा	-2703
क्य	-2704
▁दिएर	-2705
ँडा	-2706
▁चन्द्र	-2707
ञ्चन	-2708
▁क्रान्ति	-2709
ुट्	-2710
▁लिग	-2711
▁गायक	-2712
▁सरकारलाई	-2713
भिजन	-2714
ीलाई	-2715
▁टोलीले	-2716
▁प्	-2717
▁सदर	-2718
▁पहिरो	-2719
जस्तो	-2720
धुनिक	-2721
▁अने	-2722
बुक	-2723
▁सकारात्मक	-2724
▁सहर	-2725
जको	-2726
▁उहाँको	-2727
▁फर्कि	-2728
▁दशम	-2729
▁प्रवक्ता	-2730
▁खन	-2731
ानीको	-2732
▁छिम	-2733
▁गौतम	-2734
▁गुनासो	-2735
लाइन	-2736
▁राति	-2737
क्षिक	-2738
ःख	-2739
▁ल्याउने	-2740
पुरमा	-2741
om	-2742
▁लामा	-2743
▁सत्य	-2744
▁सञ्चालनमा	-2745
त्न	-2746
▁टेलि	-2747
▁विद्युत्	-2748
▁भग	-2749
▁औषधि	-2750
कुर	-2751
▁लाभ	-2752
▁मेड	-2753
▁छौँ	-2754
ानु	-2755
▁सुरक्षित	-2756
▁साधन	-2757
▁स्वागत	-2758
दारी	-2759
▁की	-2760
ज्	-2761
▁मिडिया	-2762
िकल	-2763
▁साना	-2764
खो	-2765
▁३१	-2766
▁गोर	-2767
कर	-2768
▁गलत	-2769
▁कालो	-2770
▁भनिएको	-2771
▁उनीहरुले	-2772
st	-2773
शक्ति	-2774
क्ट	-2775
ेसन	-2776
▁परियोजना	-2777
▁अग	-2778
▁पुर्या	-2779
▁पुनर्	-2780
▁मोबाइ	-2781
नीय	-2782
▁सेयर	-2783
सम्मको	-2784
▁दुख	-2785
▁प्रतिनिधिसभा	-2786
▁कम्युनिष्ट	-2787
▁फोर	-2788
▁जिल्लाका	-2789
▁बद	-2790
▁आयोगले	-2791
दायिक	-2792
▁सत्ता	-2793
▁हुनुहुन्छ	-2794
▁तस्	-2795
▁पाण्ड	-2796
किस्ता	-2797
▁गरियो	-2798
▁युनि	-2799
▁बेच	-2800
तका	-2801
ेन्सी	-2802
▁थुप	-2803
▁बढ्दै	-2804
▁उपयोग	-2805
▁ग्राह	-2806
▁सम्भव	-2807
िमा	-2808
▁जनक	-2809
क्षेप	-2810
▁आवाज	-2811
▁सहकार्य	-2812
िन्	-2813
▁बेलायत	-2814
▁बनाउ	-2815
▁मगर	-2816
▁थिएँ	-2817
▁पे	-2818
▁प्रधानमन्त्र	-2819
▁खेती	-2820
▁पाएका	-2821
पुरको	-2822
▁नभए	-2823
▁नो	-2824
▁प्रतियोगितामा	-2825
▁गएर	-2826
▁मिटर	-2827
ोजिम	-2828
▁मान्यता	-2829
म्बु	-2830
▁कहि	-2831
▁अहिलेको	-2832
▁फिर्ता	-2833
किङ	-2834
▁2	-2835
ालो	-2836
िमिर	-2837
▁अपे	-2838
▁वरिष्ठ	-2839
▁डाक्टर	-2840
सू	-2841
),	-2842
▁ठु	-2843
▁पदार्थ	-2844
▁उद्घाटन	-2845
मला	-2846
▁सिका	-2847
पचारिक	-2848
▁आक्रमण	-2849
▁ब्र	-2850
▁भे	-2851
▁हिजो	-2852
▁भएपनि	-2853
▁जग	-2854
▁मोड	-2855
▁संसद्	-2856
फी	-2857
क्कै	-2858
▁शैक्षिक	-2859
▁कडा	-2860
▁केसी	-2861
▁है	-2862
▁समाजमा	-2863
▁दुःख	-2864
▁न्यू	-2865
▁जाँदा	-2866
▁मध्ये	-2867
▁साधारण	-2868
भी	-2869
▁भर	-2870
▁बसेर	-2871
▁अभिनय	-2872
▁फोन	-2873
▁चुनौती	-2874
▁अधिकारीले	-2875
▁बलियो	-2876
▁विकासका	-2877
▁मंसिर	-2878
▁लागेका	-2879
▁छान	-2880
▁प्रग	-2881
▁ब्	-2882
ोका	-2883
यल	-2884
▁तरिका	-2885
▁समान	-2886
▁फागुन	-2887
▁चर्चित	-2888
कलाई	-2889
▁सौ	-2890
▁दलित	-2891
▁बल	-2892
▁झापा	-2893
▁सिद्धा	-2894
▁कहाँ	-2895
ष्टाचार	-2896
▁अनुमति	-2897
▁हेर्दा	-2898
▁होस्	-2899
▁थालेका	-2900
▁खण्ड	-2901
▁वैदेशिक	-2902
▁रंग	-2903
▁लोकतन्त्र	-2904
▁परिणाम	-2905
▁पुष्प	-2906
▁सबैको	-2907
म्बा	-2908
▁दबा	-2909
ारु	-2910
▁सम्पत्ति	-2911
▁नम	-2912
मिटर	-2913
ेदेखि	-2914
▁सबैलाई	-2915
ेदार	-2916
▁सामग्री	-2917
▁हिसाब	-2918
दीको	-2919
▁पञ्च	-2920
▁आर	-2921
ेलिया	-2922
आफ	-2923
▁कार्यालयले	-2924
▁जाग	-2925
▁पहल	-2926
▁पाउन	-2927
▁हिंसा	-2928
बाहेक	-2929
▁फाइदा	-2930
▁प्रतिबद्ध	-2931
▁मोटर	-2932
▁कार्यालयमा	-2933
कूल	-2934
▁विराटनगर	-2935
वाही	-2936
▁प्रदेशसभा	-2937
▁कुरामा	-2938
▁व्यावसाय	-2939
▁पुल	-2940
▁३५	-2941
▁शीर्ष	-2942
▁शासन	-2943
▁स्वदेश	-2944
▁अनुगमन	-2945
▁शेर	-2946
▁अा	-2947
कारि	-2948
▁वार्ता	-2949
▁उनीहरुको	-2950
▁दाय	-2951
▁सम्मेलन	-2952
कामना	-2953
ङ्गा	-2954
नगर	-2955
▁सदरमु	-2956
शुल्क	-2957
▁घिमिर	-2958
पूर्ति	-2959
▁सर्वसाधारण	-2960
▁संचालन	-2961
▁मन्त्रि	-2962
▁विधि	-2963
▁/	-2964
▁फोटो	-2965
▁नेतृत्वको	-2966
▁हुन्थ्यो	-2967
र्सि	-2968
▁सजा	-2969
▁मैदान	-2970
एल	-2971
▁t	-2972
▁छनोट	-2973
▁तरकारी	-2974
▁पाकिस्ता	-2975
▁कल	-2976
▁भनेका	-2977
▁सम्पाद	-2978
▁कञ्चन	-2979
▁बढाउन	-2980
▁उपभोक्ता	-2981
▁लाग्यो	-2982
▁आयात	-2983
▁लोकतान्त्रिक	-2984
▁यात्रु	-2985
▁फेसबुक	-2986
▁बहादुर	-2987
▁पाउ	-2988
वली	-2989
▁समेट	-2990
ुकु	-2991
▁हित	-2992
▁कमि	-2993
▁धर	-2994
▁रण	-2995
▁सामुदायिक	-2996
▁पाए	-2997
▁निर्माणको	-2998
▁यथा	-2999
▁ढा	-3000
▁छोड	-3001
▁हिमाल	-3002
ेश्वर	-3003
▁स्म	-3004
धानिक	-3005
मूल	-3006
▁महानगरपालिका	-3007
र्ब	-3008
घाट	-3009
▁पदाधिका	-3010
▁क्याम्प	-3011
▁पुरानो	-3012
▁मुलुकको	-3013
▁नेतृत्वमा	-3014
▁पारेको	-3015
▁आम्दानी	-3016
रोह	-3017
▁खि	-3018
हिनी	-3019
ीया	-3020
पर्ने	-3021
▁भएकोले	-3022
▁बंग	-3023
▁अत्यन्त	-3024
▁बुट	-3025
च्छा	-3026
▁चाड	-3027
लिएको	-3028
▁जुट	-3029
▁कार्यरत	-3030
▁वाणिज्य	-3031
▁सामान	-3032
▁नस	-3033
▁विकल्प	-3034
▁चढ	-3035
▁पाठ	-3036
कृतिक	-3037
रामा	-3038
▁पारित	-3039
▁छिमेकी	-3040
तिहासिक	-3041
गढी	-3042
▁सदरमुकाम	-3043
▁प्रथम	-3044
ल्ल	-3045
वाई	-3046
▁कम्पनीको	-3047
▁वर्तमान	-3048
द्र्	-3049
▁दलका	-3050
हीन	-3051
▁आलो	-3052
▁आफैं	-3053
▁गल्	-3054
होर	-3055
▁गर्नका	-3056
▁चासो	-3057
ङले	-3058
▁R	-3059
▁प्रतिष्ठान	-3060
▁युरो	-3061
सला	-3062
▁प्रसार	-3063
बीचको	-3064
▁होटल	-3065
▁मार्ग	-3066
▁कतै	-3067
समि	-3068
ोध	-3069
लादेश	-3070
▁सभ	-3071
दन	-3072
▁पार्ने	-3073
▁हासिल	-3074
▁सचेत	-3075
त्तै	-3076
▁ललित	-3077
▁कविता	-3078
▁सबैले	-3079
हारी	-3080
▁आएर	-3081
▁कर्जा	-3082
▁विकेट	-3083
▁मानसिक	-3084
▁भ्रष्टाचार	-3085
▁त्यसैगरी	-3086
सकेपछि	-3087
▁उदाहरण	-3088
रका	-3089
▁मेला	-3090
▁मोर्चा	-3091
▁चुना	-3092
यको	-3093
चक	-3094
हण	-3095
▁महोत्	-3096
रुपमा	-3097
▁विज्ञान	-3098
दिने	-3099
▁दिँदै	-3100
▁रेडियो	-3101
▁तिनी	-3102
▁ज्ञा	-3103
▁फल	-3104
▁नभई	-3105
कुद	-3106
▁पहु	-3107
चौ	-3108
रे	-3109
▁संविधानसभा	-3110
पथ	-3111
▁उपस्थित	-3112
र्नु	-3113
▁मुलुकमा	-3114
▁पृथ	-3115
▁राख्	-3116
▁डलर	-3117
▁संसदीय	-3118
▁भारतले	-3119
▁यता	-3120
▁दोष	-3121
▁हेर्ने	-3122
▁सक्छन्	-3123
▁पौडेलले	-3124
▁ट्या	-3125
▁जेल	-3126
▁सन्देश	-3127
▁अनुरोध	-3128
तिका	-3129
▁वार्षिक	-3130
▁अपेक्षा	-3131
▁अनुदान	-3132
▁उपयुक्त	-3133
▁जानु	-3134
जिनि	-3135
▁पर्या	-3136
विध	-3137
▁लिएका	-3138
विद्यु	-3139
▁पर्दछ	-3140
▁गाई	-3141
▁मेगा	-3142
▁रोजगार	-3143
▁अभिने	-3144
▁शुल्क	-3145
▁अघिल्लो	-3146
or	-3147
▁लगाएको	-3148
▁दोहो	-3149
▁प्रहरीको	-3150
ङका	-3151
▁खेलकुद	-3152
▁बढाउने	-3153
▁सञ्जाल	-3154
▁हैन	-3155
▁लगाएर	-3156
▁राज्यको	-3157
▁उपस्थिति	-3158
▁स्वय	-3159
▁बाहेक	-3160
▁धान	-3161
मिला	-3162
▁भूमि	-3163
▁पुग्न	-3164
▁न्यून	-3165
कानी	-3166
▁मन्त्रिपरि	-3167
गढ	-3168
▁प्रेस	-3169
▁प्राय	-3170
▁दशमलव	-3171
▁S	-3172
▁निश्चित	-3173
▁सांस्कृतिक	-3174
ाउँछ	-3175
सुक	-3176
ore	-3177
ठो	-3178
▁कहिल्यै	-3179
▁ऐतिहासिक	-3180
▁बाग	-3181
▁विमानस्थल	-3182
▁भत्	-3183
▁अम	-3184
▁नगद	-3185
▁प्रारम्भ	-3186
▁गतिविधि	-3187
श्र	-3188
▁प्राकृतिक	-3189
▁फ्रा	-3190
▁कुमार	-3191
र्का	-3192
▁सरो	-3193
▁सही	-3194
▁काठमाण्ड	-3195
हरूका	-3196
मारी	-3197
परेको	-3198
▁युद्ध	-3199
न्तव्य	-3200
▁बढ्	-3201
▁ज्या	-3202
वाला	-3203
बन्दी	-3204
▁सन्दर्भमा	-3205
▁निर्धारण	-3206
▁मुख्यमन्त्री	-3207
▁1	-3208
▁विकासको	-3209
▁—	-3210
बिन	-3211
▁पुस्तक	-3212
▁मलेसिया	-3213
▁गाँ	-3214
▁पछा	-3215
▁त्यसले	-3216
एक	-3217
▁भनाई	-3218
ीक	-3219
▁बिस्त	-3220
▁साझा	-3221
▁इतिहास	-3222
▁कर्णाली	-3223
▁ते	-3224
नल	-3225
▁लगाउन	-3226
ल्ड	-3227
ज्ञानिक	-3228
र्पा	-3229
पण	-3230
तह	-3231
▁त्यसका	-3232
प्रिय	-3233
▁निर्माणका	-3234
▁ढकाल	-3235
▁केन्द्रित	-3236
▁भनिन्छ	-3237
लगायतका	-3238
▁गज	-3239
▁सम्पर्क	-3240
मेल	-3241
▁नसक्	-3242
▁समग्र	-3243
भने	-3244
▁एम	-3245
ेन्स	-3246
▁भन्छ	-3247
▁किलोमिटर	-3248
▁चिया	-3249
▁पार्न	-3250
▁सार	-3251
▁भोज	-3252
वधान	-3253
▁N	-3254
▁संघर्ष	-3255
▁वर्षदेखि	-3256
ुली	-3257
▁कार्तिक	-3258
▁थुप्रै	-3259
▁अन्	-3260
शाली	-3261
▁अदालत	-3262
▁महोत्सव	-3263
▁पहुँच	-3264
▁गोली	-3265
▁बैंकको	-3266
▁शव	-3267
नेटमा	-3268
▁कम्युनिस्ट	-3269
ेकै	-3270
▁रोक	-3271
ुपयोग	-3272
▁भर्ना	-3273
ंगो	-3274
▁आयोजनामा	-3275
▁बन्दै	-3276
▁नगर्ने	-3277
▁जलविद्यु	-3278
▁टीका	-3279
▁चैत	-3280
राको	-3281
▁विनि	-3282
यनमा	-3283
▁चित्र	-3284
▁७०	-3285
हुँ	-3286
ग्रा	-3287
दछन्	-3288
▁नगरी	-3289
▁उनीहरूले	-3290
ढे	-3291
▁अथ	-3292
▁स्थायी	-3293
िल	-3294
प्रधान	-3295
▁हालसम्म	-3296
▁जनप्रति	-3297
▁नति	-3298
▁उपाधि	-3299
कोटा	-3300
सिंह	-3301
▁सफलता	-3302
▁बोला	-3303
▁भेला	-3304
सक्छ	-3305
▁दर्जन	-3306
▁मेडिकल	-3307
▁बैङ्क	-3308
त्ती	-3309
▁आउँछ	-3310
▁अर्ज	-3311
फिक	-3312
▁मर्म	-3313
▁भोलि	-3314
▁गर्नेछ	-3315
षद	-3316
गञ्ज	-3317
▁सरोकार	-3318
▁गाउँमा	-3319
▁विश्वकप	-3320
▁गराएको	-3321
▁परिच	-3322
▁पत्रिका	-3323
▁त्यस्ता	-3324
▁कुराकानी	-3325
▁उचित	-3326
▁बग	-3327
▁आफै	-3328
▁प्रदेशको	-3329
▁बढ्न	-3330
▁भावना	-3331
रीका	-3332
▁हाँ	-3333
▁मोबाइल	-3334
क्रो	-3335
▁सै	-3336
द्रा	-3337
▁आधुनिक	-3338
▁ऊर्जा	-3339
राख	-3340
▁लक्ष्मी	-3341
▁उनीहरूको	-3342
र्माले	-3343
▁एवम्	-3344
▁पन्त	-3345
▁क्यान्स	-3346
▁सोध	-3347
▁८०	-3348
बास	-3349
स्की	-3350
▁प्रहार	-3351
▁२०७३	-3352
▁विजयी	-3353
▁विजय	-3354
▁आफन्त	-3355
नलमा	-3356
वात	-3357
आइ	-3358
▁दशक	-3359
▁प्रतिनि	-3360
▁बौ	-3361
▁नहुँदा	-3362
▁सम्व	-3363
▁फेला	-3364
▁उत्त	-3365
एफ	-3366
▁सिद्धान्त	-3367
डिङ	-3368
भरि	-3369
मेश	-3370
ष्णु	-3371
▁दबाब	-3372
▁जनतालाई	-3373
▁किश	-3374
....	-3375
लाम	-3376
▁विद्यार्थ	-3377
चन्द्र	-3378
▁अर्थतन्त्र	-3379
▁प्रगति	-3380
▁समृद्ध	-3381
जे	-3382
▁राहत	-3383
▁झु	-3384
बारी	-3385
▁क्षेत्रीय	-3386
▁गणतन्त्र	-3387
चर	-3388
▁प्रो	-3389
▁वर्षीया	-3390
व्र	-3391
▁शुभकामना	-3392
▁महिलाको	-3393
▁कट	-3394
ट्टा	-3395
▁मिनेट	-3396
महान	-3397
▁उत्सा	-3398
▁अलि	-3399
▁पास	-3400
श्रम	-3401
▁व्यक्तिगत	-3402
▁निग	-3403
▁अवधिमा	-3404
्याल	-3405
▁भाष	-3406
▁कानून	-3407
्यता	-3408
▁महत्	-3409
▁सरकारका	-3410
ेशन	-3411
ियम	-3412
▁माथ	-3413
▁अन्न	-3414
▁बस्न	-3415
▁भरत	-3416
▁औपचारिक	-3417
▁जोग	-3418
ारायण	-3419
नन्	-3420
▁झन्	-3421
▁सडकमा	-3422
▁व्यवस्थाप	-3423
भूत	-3424
वस्था	-3425
ाई	-3426
स्ट्र	-3427
ण्डै	-3428
ाउँदा	-3429
▁जमिन	-3430
माओ	-3431
▁निस्क	-3432
किने	-3433
▁राजदू	-3434
न्थ	-3435
▁नेपाललाई	-3436
▁पर्यटकीय	-3437
▁४५	-3438
श्वर	-3439
▁दिनको	-3440
▁२०५	-3441
▁आधारित	-3442
भे	-3443
एकाले	-3444
▁सिफारिस	-3445
लम्ब	-3446
७५	-3447
न्द्व	-3448
दम	-3449
▁त्यसो	-3450
▁तिर	-3451
▁सिट	-3452
ल्ली	-3453
▁नियन्त्रणमा	-3454
▁सम्मेलनमा	-3455
ंकन	-3456
▁चुनावी	-3457
▁ठे	-3458
▁श्रीमती	-3459
ड्ने	-3460
▁हिँड	-3461
▁महेन्द्र	-3462
▁व्यक्तिको	-3463
जुरी	-3464
▁अध्या	-3465
▁कमी	-3466
घु	-3467
र्ती	-3468
▁विविध	-3469
सङ्	-3470
▁ट्रम्प	-3471
▁समारोह	-3472
बे	-3473
▁विद्यालयमा	-3474
▁आउँ	-3475
▁दुबै	-3476
▁सजिलो	-3477
▁मोर	-3478
▁अर्थात	-3479
ठी	-3480
▁पार्टीले	-3481
उँदा	-3482
देवी	-3483
्रु	-3484
शुप	-3485
▁भारतमा	-3486
▁काठमाडौंमा	-3487
▁३२	-3488
▁कैला	-3489
▁गोरखा	-3490
▁भनिन्	-3491
▁महिनामा	-3492
▁उडान	-3493
▁अदालतले	-3494
▁दिवस	-3495
▁मिलेर	-3496
पदण्ड	-3497
▁जसमा	-3498
▁मेल	-3499
▁प्रतिक्रिया	-3500
पन्न	-3501
▁व्यावसायिक	-3502
▁सशस्त्र	-3503
▁P	-3504
▁नगरपालिकाको	-3505
चो	-3506
▁झण्डै	-3507
▁महासचिव	-3508
▁गरिदि	-3509
▁हस्तान्तरण	-3510
ुरू	-3511
▁दाजु	-3512
▁पदाधिकारी	-3513
ेलिक	-3514
it	-3515
▁ढंग	-3516
▁दिउँ	-3517
▁भित्	-3518
▁कोइराला	-3519
▁तिमी	-3520
▁शेर्पा	-3521
लक	-3522
▁स्थानिय	-3523
▁चलन	-3524
▁अनेक	-3525
▁मापदण्ड	-3526
▁भन्नु	-3527
कारण	-3528
वार्ड	-3529
▁दस	-3530
▁नियुक्त	-3531
▁पुस	-3532
▁प्रतिबद्धता	-3533
▁खुसी	-3534
▁बीमा	-3535
▁वर्षअघि	-3536
▁नतिजा	-3537
▁विष्ट	-3538
साई	-3539
▁उद्धार	-3540
यमा	-3541
जान	-3542
▁आधा	-3543
▁नाटक	-3544
▁अनलाइन	-3545
▁बनाएका	-3546
न्टर	-3547
पूर्वक	-3548
▁चरणको	-3549
रहे	-3550
▁तु	-3551
तावास	-3552
भाइ	-3553
विन	-3554
▁टिक	-3555
सुकै	-3556
ीकृत	-3557
▁कानुनी	-3558
विन्द	-3559
▁निज	-3560
▁बसेका	-3561
ौला	-3562
▁मित्र	-3563
▁सङ्ग	-3564
विर	-3565
▁२०७२	-3566
▁दुर	-3567
क्षेत्र	-3568
▁अमेरिकाको	-3569
छिन्	-3570
जमा	-3571
खेल	-3572
▁किनभने	-3573
▁तुलनामा	-3574
▁महाधि	-3575
▁बिभिन्न	-3576
▁जिम्मा	-3577
▁चलि	-3578
▁एश	-3579
कट	-3580
ियो	-3581
▁बताएको	-3582
▁काउ	-3583
मीले	-3584
▁बोल	-3585
▁काट	-3586
▁यसैगरी	-3587
▁सब	-3588
टाइ	-3589
डामा	-3590
होस	-3591
▁दौ	-3592
▁न्यु	-3593
▁जनप्रतिनिधि	-3594
▁करी	-3595
▁अत्या	-3596
गोल	-3597
▁अभिभाव	-3598
▁विश्ले	-3599
वत	-3600
▁राजमार्ग	-3601
डीको	-3602
रुवा	-3603
गार	-3604
▁राखेका	-3605
▁दै	-3606
गरमा	-3607
▁पशुप	-3608
▁जान्छ	-3609
▁पुँजी	-3610
▁सूर्य	-3611
▁दलको	-3612
▁स्वीकार	-3613
र्खा	-3614
▁सिन्ध	-3615
भाविक	-3616
▁कार्यालयका	-3617
▁अगाडी	-3618
▁चिन्ता	-3619
▁मौलिक	-3620
▁हस्ताक्षर	-3621
▁एजेन्सी	-3622
▁३३	-3623
टिङ	-3624
▁जय	-3625
जस्तै	-3626
▁व्यापारी	-3627
▁संघका	-3628
▁बौद्ध	-3629
▁जनालाई	-3630
कृष्ण	-3631
ञ्चल	-3632
▁एयर	-3633
▁सैनिक	-3634
▁घो	-3635
▁मू	-3636
▁जनाएका	-3637
वाइ	-3638
▁परिचय	-3639
▁नआ	-3640
▁भुक्ता	-3641
▁यद्य	-3642
▁जनजा	-3643
▁गरिसकेको	-3644
▁सुनु	-3645
सहितको	-3646
यन्त्र	-3647
▁जहा	-3648
▁चयन	-3649
▁हार	-3650
es	-3651
▁समर्थन	-3652
▁हालै	-3653
▁भक्तपुर	-3654
▁बालिका	-3655
ियर	-3656
▁तपाईंको	-3657
लुङ	-3658
▁तर्क	-3659
▁मुक्त	-3660
▁माओवाद	-3661
▁दिदी	-3662
क्सी	-3663
▁केन्द्रका	-3664
▁रगत	-3665
▁धारा	-3666
▁पहिला	-3667
व्यक्ति	-3668
▁एकजना	-3669
नीतिक	-3670
▁राजी	-3671
▁संचाल	-3672
▁राणा	-3673
छी	-3674
▁सजाय	-3675
▁थोर	-3676
ण्डकी	-3677
▁डी	-3678
▁हाइ	-3679
▁रासस	-3680
कमल	-3681
▁छिटो	-3682
नीको	-3683
▁चीनको	-3684
▁पृथ्व	-3685
ेटि	-3686
▁बिषय	-3687
▁शरीर	-3688
▁प्रवृत्ति	-3689
▁परिषद्	-3690
▁सहयोगमा	-3691
▁more	-3692
▁मिनेटमा	-3693
▁आस	-3694
▁पत्ता	-3695
▁तथ्य	-3696
ou	-3697
▁निर्माणमा	-3698
नित	-3699
र्दै	-3700
▁चौथो	-3701
न्ती	-3702
▁अभ्यास	-3703
ेदन	-3704
वार्य	-3705
▁सप्त	-3706
▁विकासमा	-3707
ल्पना	-3708
▁गणेश	-3709
▁बराबरको	-3710
▁सन्ता	-3711
▁संस्थाको	-3712
▁ठुलो	-3713
▁इज	-3714
ल्पा	-3715
▁शाही	-3716
▁मुस्	-3717
▁C	-3718
ङक	-3719
▁विदेशमा	-3720
▁म्याग्	-3721
▁विभागले	-3722
▁उनि	-3723
▁रक्त	-3724
र्ताको	-3725
्रोल	-3726
▁उपमहान	-3727
▁चो	-3728
ङ्ग्र	-3729
▁संस्थाले	-3730
▁मन्त्रालयका	-3731
▁बाह	-3732
▁जसरी	-3733
▁मानिन्छ	-3734
ह्रो	-3735
मिटेड	-3736
▁संविधानको	-3737
▁अनिवार्य	-3738
▁अपना	-3739
▁दुर्घटनामा	-3740
▁सञ्चालक	-3741
▁परिस्थिति	-3742
▁अथवा	-3743
▁परा	-3744
▁शर्माले	-3745
▁दिउँसो	-3746
▁पुगेर	-3747
▁रात	-3748
▁प्रदेशमा	-3749
▁निरा	-3750
▁गुल्	-3751
▁बीचमा	-3752
▁हिसाबले	-3753
▁महसु	-3754
▁केन्द्रमा	-3755
प्रमुख	-3756
इरहेको	-3757
▁खत	-3758
▁जसको	-3759
क्रा	-3760
▁सङ्घीय	-3761
▁वास्तविक	-3762
▁हस्त	-3763
▁अख्	-3764
निया	-3765
▁प्रावधान	-3766
▁आलोचना	-3767
▁म्यु	-3768
▁पर्याप्त	-3769
▁नेपालीको	-3770
▁हुनाले	-3771
▁७५	-3772
▁विज्ञप्	-3773
सिन्दा	-3774
ामुख	-3775
▁अष्ट्र	-3776
पश्चिम	-3777
सामा	-3778
▁यिन	-3779
लार्इ	-3780
▁खोजी	-3781
▁कमल	-3782
▁पुस्ता	-3783
्युट	-3784
▁तथ्यांक	-3785
▁साझ	-3786
▁भन्सार	-3787
मार्ट	-3788
▁पदमा	-3789
ead	-3790
▁पशु	-3791
▁समुह	-3792
▁तलब	-3793
▁महाधिवेश	-3794
श्वास	-3795
बो	-3796
धिकार	-3797
भित्रै	-3798
▁विस्तृत	-3799
नन्द	-3800
नीति	-3801
▁नजिकै	-3802
▁मौका	-3803
▁चेत	-3804
▁प्राथमिकता	-3805
▁खानेपानी	-3806
▁लोकप्रिय	-3807
▁कोरि	-3808
▁बताउनु	-3809
घर	-3810
▁इट	-3811
▁बुढा	-3812
▁एसिया	-3813
▁बसो	-3814
▁गराइ	-3815
▁मौसम	-3816
▁न्यायाधीश	-3817
र्घ	-3818
बजार	-3819
मल	-3820
▁पुष्पकमल	-3821
▁भएमा	-3822
▁तेल	-3823
शाखा	-3824
▁स्थल	-3825
▁बमोजिम	-3826
▁पाइने	-3827
▁पीडा	-3828
▁मेरा	-3829
प्रा	-3830
टीमा	-3831
▁थोरै	-3832
ic	-3833
▁पर्न	-3834
▁प्रतियोगिताको	-3835
▁नभएर	-3836
▁बिदा	-3837
▁सँगै	-3838
▁प्रवाह	-3839
रात	-3840
▁शेरबहादुर	-3841
▁नाच	-3842
▁बुझ्न	-3843
७४	-3844
▁अनुहार	-3845
▁लिमिटेड	-3846
सके	-3847
▁मेगावाट	-3848
शासन	-3849
नुभएका	-3850
▁जनकपुर	-3851
▁ट्राफिक	-3852
▁T	-3853
▁राजनीतिमा	-3854
▁च्याम्प	-3855
▁देखिने	-3856
▁आएपछि	-3857
ानमा	-3858
▁घरेलु	-3859
जसो	-3860
▁बिच	-3861
▁केसीले	-3862
▁पछाडि	-3863
▁शो	-3864
▁पात्र	-3865
▁व्यवस्थित	-3866
▁आवास	-3867
वमा	-3868
▁p	-3869
व्या	-3870
▁अपा	-3871
▁तोकिएको	-3872
शेष	-3873
स्टर	-3874
▁रक्षा	-3875
▁प्रतिपक्ष	-3876
▁पाइएको	-3877
र्को	-3878
▁पढ्न	-3879
▁राउ	-3880
▁अमेरिकामा	-3881
▁धन्य	-3882
▁मृत	-3883
होला	-3884
▁नागरिकता	-3885
▁दम	-3886
▁छे	-3887
िकार	-3888
▁विना	-3889
ताब	-3890
क्षम	-3891
▁चुनावमा	-3892
▁युरोप	-3893
▁२०४	-3894
▁गरिनेछ	-3895
▁लाग्न	-3896
वर्ष	-3897
▁कास्की	-3898
जनक	-3899
संख्या	-3900
द्र्धन	-3901
▁आउनु	-3902
he	-3903
सै	-3904
▁छै	-3905
▁कम्तीमा	-3906
यद	-3907
▁भोट	-3908
डको	-3909
▁साढे	-3910
▁जनशक्ति	-3911
▁गरिरह	-3912
▁खुशी	-3913
सेवा	-3914
▁करीब	-3915
▁फर	-3916
न्थे	-3917
▁तल	-3918
▁प्रजातन्त्र	-3919
▁20	-3920
▁देख्न	-3921
्याउने	-3922
▁बुटवल	-3923
▁महसुस	-3924
▁इच्छा	-3925
▁टाढा	-3926
▁तोक	-3927
▁प्रकाशन	-3928
▁त्रिभु	-3929
▁भएकी	-3930
ूट	-3931
कोण	-3932
चु	-3933
▁कांग्रेसका	-3934
परा	-3935
▁प्रसाद	-3936
युद्ध	-3937
▁बाढी	-3938
▁थु	-3939
▁प्रसारण	-3940
▁सचिवालय	-3941
▁मन्त्रिपरिषद्	-3942
▁दिला	-3943
▁स्वार्थ	-3944
▁गोविन्द	-3945
▁परिचालन	-3946
▁सीमित	-3947
▁९०	-3948
▁हप्ता	-3949
▁भण्डारीले	-3950
देख	-3951
▁खार	-3952
▁गुरुङले	-3953
▁उद्देश्यले	-3954
भूति	-3955
▁निधन	-3956
▁उनीहरुलाई	-3957
▁उजुरी	-3958
▁जीवनमा	-3959
▁देखाएको	-3960
▁संस्कार	-3961
▁उपचारका	-3962
वैधानिक	-3963
▁परे	-3964
▁उत्पन्न	-3965
आफ्न	-3966
▁खेल्ने	-3967
ितो	-3968
▁महत्त्व	-3969
▁प्रकारको	-3970
▁अवार्ड	-3971
जाने	-3972
ब्य	-3973
▁औँ	-3974
▁निः	-3975
खित	-3976
▁माध्यमबाट	-3977
▁तस्क	-3978
▁एनआर	-3979
▁सरस	-3980
ंदै	-3981
माओवादी	-3982
▁म्यान	-3983
डर	-3984
▁A	-3985
▁यसो	-3986
▁क्य	-3987
लागि	-3988
▁बंगलादेश	-3989
द्व	-3990
▁कामको	-3991
ाएका	-3992
▁चाहिँ	-3993
लोकन	-3994
▁लगाए	-3995
▁बनि	-3996
▁बिका	-3997
▁गाविस	-3998
▁मासु	-3999
▁खस	-4000
▁कारवाही	-4001
नेमा	-4002
▁क्यान्सर	-4003
▁आयोजनाको	-4004
▁राज्यले	-4005
▁रस	-4006
▁त्रिभुवन	-4007
▁लगातार	-4008
▁a	-4009
▁सङ्ख्या	-4010
▁भरि	-4011
▁छानबिन	-4012
▁व्यक्तिले	-4013
▁भीम	-4014
स्थलमा	-4015
▁टाइ	-4016
▁जाँच	-4017
▁यसबाट	-4018
▁अच	-4019
▁प्रतिनिध	-4020
याली	-4021
▁बस्ती	-4022
▁कतार	-4023
▁मन्दि	-4024
▁१९९	-4025
▁नम्ब	-4026
तु	-4027
▁फोरम	-4028
▁प्रशिक्षण	-4029
▁मुटु	-4030
ाउको	-4031
ियाली	-4032
▁गीतमा	-4033
▁निर्वाचनको	-4034
▁अप्	-4035
▁उत्र	-4036
▁द्वन्द्व	-4037
इने	-4038
नलाई	-4039
▁सेवन	-4040
▁आय	-4041
▁सेत	-4042
▁संगठ	-4043
गमा	-4044
नीमा	-4045
▁यादवले	-4046
▁वैज्ञानिक	-4047
▁चाहना	-4048
▁अक्	-4049
▁जनसंख्या	-4050
र्खेत	-4051
▁मण्ड	-4052
▁बेलामा	-4053
▁सिमा	-4054
ल्यान्ड	-4055
▁थालेपछि	-4056
▁तीव्र	-4057
▁रमाइ	-4058
▁हङक	-4059
▁सहायक	-4060
▁प्रशिक्षक	-4061
▁माछा	-4062
▁असफल	-4063
▁लेखक	-4064
▁जाति	-4065
▁मानिसको	-4066
▁पुग्	-4067
▁s	-4068
▁मनाइ	-4069
म्स	-4070
▁दर्शक	-4071
भेद	-4072
▁मोटरसाइ	-4073
▁बिना	-4074
टीका	-4075
▁गर्‍यो	-4076
भारत	-4077
▁काल	-4078
▁हरु	-4079
▁गाह्रो	-4080
▁प्रमाणपत्र	-4081
लिङ	-4082
वार्ता	-4083
▁निर्मा	-4084
▁महिनाको	-4085
▁गाउ	-4086
▁परराष्ट्र	-4087
▁सवै	-4088
▁देखिएका	-4089
संस्था	-4090
▁२०१८	-4091
▁बनाइएको	-4092
▁बाँच	-4093
▁लक्षित	-4094
▁समाजको	-4095
▁एकीकृत	-4096
▁बोकेर	-4097
▁स्कुल	-4098
ईएको	-4099
▁पर्दैन	-4100
वीर	-4101
▁कार्यक्रमका	-4102
▁अख्तियार	-4103
फि	-4104
▁हुनसक्छ	-4105
▁निरन्तरता	-4106
्याम	-4107
▁पत्रकारि	-4108
▁लडा	-4109
▁दशैं	-4110
जन्य	-4111
▁आह	-4112
▁दिन्छ	-4113
▁सकेका	-4114
▁रहेर	-4115
▁रोक्न	-4116
द्रो	-4117
▁समयदेखि	-4118
▁मुक्ति	-4119
▁लाल	-4120
▁कानू	-4121
▁गयो	-4122
▁बर	-4123
▁मेस	-4124
नाम	-4125
▁दाहालले	-4126
▁यहाँका	-4127
▁प्रतिनिधित्व	-4128
▁उसलाई	-4129
▁विपक्ष	-4130
▁एक्स	-4131
लिया	-4132
▁सूच	-4133
▁M	-4134
▁नियु	-4135
▁प्रे	-4136
स्को	-4137
यौँ	-4138
▁बरु	-4139
किलो	-4140
िन्छ	-4141
▁केवल	-4142
न्दे	-4143
ालका	-4144
▁अप्र	-4145
▁सकिएको	-4146
▁सफा	-4147
▁नामक	-4148
गल	-4149
ाएर	-4150
▁व्यापक	-4151
▁म्युजिक	-4152
टिल	-4153
▁सन्ध	-4154
मण	-4155
▁जर्म	-4156
▁नगरपालिकाले	-4157
खण्ड	-4158
चे	-4159
▁बताउनुभएको	-4160
▁भोग	-4161
▁अतिथि	-4162
▁पारेर	-4163
मावली	-4164
▁नवल	-4165
▁निकट	-4166
ुट्टा	-4167
▁पुराना	-4168
▁सुर्खेत	-4169
▁न्यौ	-4170
▁रचना	-4171
▁आत	-4172
बम	-4173
▁बहस	-4174
▁घरको	-4175
▁मेयर	-4176
तीको	-4177
▁बारे	-4178
▁गर्छु	-4179
▁जन्मि	-4180
▁लगानीकर्ता	-4181
▁आनन्द	-4182
▁सरकारमा	-4183
▁देवकोटा	-4184
हरी	-4185
▁व्यस्त	-4186
▁गन्तव्य	-4187
ानै	-4188
जय	-4189
गण	-4190
▁असन्तु	-4191
▁कांग्रेसले	-4192
द्योग	-4193
नाल्	-4194
▁लागु	-4195
भार	-4196
▁नियुक्ति	-4197
▁प्ला	-4198
भग	-4199
▁खाद्य	-4200
▁महाशाखा	-4201
▁पढ्नु	-4202
▁बोल्दै	-4203
▁भ्रमणमा	-4204
त्वमा	-4205
▁लामि	-4206
▁ढंगले	-4207
▁नाफा	-4208
▁ब्याज	-4209
▁मधेशी	-4210
नाका	-4211
▁महिलाले	-4212
▁काठमाण्डौ	-4213
हरुसँग	-4214
▁मात्रामा	-4215
▁मञ्च	-4216
▁नगरपालिकाका	-4217
▁होट	-4218
▁माटो	-4219
वहार	-4220
▁बिजु	-4221
▁संवैधानिक	-4222
▁भव	-4223
▁निर्वाह	-4224
▁चे	-4225
▁भुक्तानी	-4226
▁जुम्	-4227
▁उता	-4228
▁पानीको	-4229
▁निस्	-4230
▁आइपुग	-4231
▁संकेत	-4232
▁चौधरी	-4233
गम	-4234
ियाँ	-4235
हुन्थ्यो	-4236
▁५५	-4237
जुर	-4238
्याउन	-4239
▁पत्	-4240
▁न्यौपा	-4241
▁अध्यक्षतामा	-4242
वनी	-4243
▁चरि	-4244
▁कसैलाई	-4245
▁बासिन्दा	-4246
▁तहका	-4247
गाउँ	-4248
▁पर्दा	-4249
▁खेलको	-4250
▁कुट	-4251
▁इन्टरनेट	-4252
▁रिपोर्ट	-4253
फ्ट	-4254
ब्र	-4255
ृति	-4256
▁कार्यमा	-4257
श्रो	-4258
▁राईले	-4259
▁Read	-4260
▁दरबार	-4261
▁समुदायको	-4262
▁काठमाडौ	-4263
प्पणी	-4264
▁पुगे	-4265
▁राख्नु	-4266
▁मूल्या	-4267
▁रिय	-4268
शाला	-4269
▁अग्	-4270
▁रेग्	-4271
मण्ड	-4272
▁बाबुराम	-4273
▁गतेदेखि	-4274
▁लेखा	-4275
▁देउवाले	-4276
▁लागिएको	-4277
▁उपाय	-4278
▁घुम्	-4279
▁यद्यपि	-4280
▁अवि	-4281
▁खटि	-4282
le	-4283
▁क्रमश	-4284
ंगी	-4285
▁लामिछा	-4286
▁राजदूत	-4287
▁अर्य	-4288
िको	-4289
▁c	-4290
▁व्यक्तिलाई	-4291
प्ले	-4292
परी	-4293
▁बित	-4294
▁बताइन्	-4295
▁चालक	-4296
”,	-4297
बिर	-4298
▁अवै	-4299
▁जनाले	-4300
▁हिन्दु	-4301
रोधी	-4302
▁वर्षसम्म	-4303
पत्रमा	-4304
म्बिनी	-4305
▁गरिब	-4306
▁अदालतमा	-4307
▁ग्राहक	-4308
▁देशभर	-4309
▁फैसला	-4310
ँस	-4311
▁बेर	-4312
▁खासै	-4313
राइ	-4314
▁डेढ	-4315
▁हेट	-4316
▁गराएका	-4317
▁कञ्चनपुर	-4318
▁सेमि	-4319
▁विक्र	-4320
▁तार	-4321
ing	-4322
ha	-4323
लिज	-4324
▁हातमा	-4325
मय	-4326
▁पुनर्निर्माण	-4327
▁बढ्दो	-4328
▁समाजवादी	-4329
▁सालको	-4330
र्दा	-4331
▁साउदी	-4332
▁दिशा	-4333
▁सृ	-4334
▁विद्युत	-4335
▁समयमै	-4336
▁क्रियाकला	-4337
▁डर	-4338
▁इन्जिनि	-4339
र्यो	-4340
▁डिजा	-4341
समिति	-4342
हरुबाट	-4343
▁खोजेको	-4344
नुपा	-4345
▁हिन्द	-4346
ईको	-4347
ध्यापक	-4348
ोत्त	-4349
▁दायित्व	-4350
▁भाषामा	-4351
▁मजदुर	-4352
▁उपलब्धि	-4353
गन्ज	-4354
▁आवेदन	-4355
▁उपकरण	-4356
▁विधान	-4357
कालमा	-4358
▁मिस	-4359
▁एकल	-4360
झदारी	-4361
ब्जा	-4362
ौल	-4363
▁पाठक	-4364
▁गर्दछन्	-4365
▁पेट्रोल	-4366
▁भर्खर	-4367
▁मधेसी	-4368
▁भट्टराईले	-4369
▁बैं	-4370
र्छ	-4371
मीको	-4372
▁बिता	-4373
▁एण्ड	-4374
▁पसल	-4375
▁निवास	-4376
▁अष्ट्रेलिया	-4377
▁कसैको	-4378
▁विगतमा	-4379
▁प्रकारका	-4380
▁सल	-4381
र्चु	-4382
िए	-4383
▁टिकट	-4384
१०	-4385
ंकर	-4386
▁निःशुल्क	-4387
▁यथार्थ	-4388
▁दृष्टिकोण	-4389
▁भारतका	-4390
▁राजस्व	-4391
▁मेट	-4392
▁विष्णु	-4393
▁गृहमन्त्री	-4394
▁संस्थागत	-4395
▁स्तर	-4396
▁गुणस्तर	-4397
प्रधानमन्त्री	-4398
ुप्	-4399
▁सर्वा	-4400
पात	-4401
▁प्रदेशका	-4402
▁लगाइ	-4403
▁कित्	-4404
▁खतरा	-4405
ईन	-4406
▁नगरेको	-4407
▁एमालेका	-4408
▁साथमा	-4409
▁दिल्ली	-4410
▁रातो	-4411
▁दिनुपर्ने	-4412
▁भ्या	-4413
▁दूध	-4414
▁गाउँपालिकाको	-4415
▁चाँड	-4416
▁उपमहानगरपालिका	-4417
▁साँच	-4418
▁छुट्टै	-4419
जनको	-4420
नुपातिक	-4421
फोन	-4422
▁रहन	-4423
▁शुरू	-4424
▁टी	-4425
▁छाप	-4426
▁पहाडी	-4427
▁संघको	-4428
▁प्रतिशतले	-4429
▁निर्मला	-4430
उड	-4431
▁स्वयं	-4432
क्षी	-4433
▁जलविद्युत्	-4434
पोख	-4435
▁गराउ	-4436
,”	-4437
स्वा	-4438
▁सिक	-4439
▁हुदै	-4440
▁सुनिश्चित	-4441
▁उन्	-4442
नैतिक	-4443
▁मैदानमा	-4444
▁रेक	-4445
▁मतदाता	-4446
▁केश	-4447
▁पुष्टि	-4448
पकोटा	-4449
▁पस	-4450
▁बनाउनु	-4451
भक्त	-4452
▁बनाए	-4453
▁रौ	-4454
▁घटनाको	-4455
ेवार	-4456
▁संस्थाका	-4457
चाइ	-4458
▁चेता	-4459
▁ओलीको	-4460
▁d	-4461
▁नाय	-4462
▁बेल्	-4463
▁चिकित्सा	-4464
ep	-4465
भोग	-4466
▁द्	-4467
▁सापकोटा	-4468
▁लुम्बिनी	-4469
▁३६	-4470
▁महानि	-4471
▁आफैँ	-4472
रिङ	-4473
▁किसिमको	-4474
▁सहयोगी	-4475
ग्राही	-4476
स्यौ	-4477
▁काठमाडौंको	-4478
▁नुवा	-4479
▁रुपियाँ	-4480
▁विभागका	-4481
▁प्रकृ	-4482
▁एनआरएन	-4483
▁नारी	-4484
▁पठाउने	-4485
▁रमेश	-4486
▁गौर	-4487
▁त्यतिबेला	-4488
▁सुत्	-4489
▁हल	-4490
ढु	-4491
▁अल्	-4492
यनको	-4493
▁माल	-4494
▁विधा	-4495
▁छोटो	-4496
▁समानुपातिक	-4497
धारणा	-4498
▁मनमा	-4499
रामर्श	-4500
लाग्	-4501
ालीको	-4502
▁विभा	-4503
▁स्मार्ट	-4504
▁गतेसम्म	-4505
▁बालुवा	-4506
▁भागमा	-4507
▁आयोगको	-4508
▁नसक्दा	-4509
ण्ट	-4510
बाबु	-4511
न्देही	-4512
स्तरीय	-4513
▁पढाइ	-4514
वादको	-4515
▁संक्रमण	-4516
केट	-4517
▁वर्षका	-4518
▁औद्योग	-4519
▁छौ	-4520
▁चन्द	-4521
न्टा	-4522
▁ठीक	-4523
प्टर	-4524
▁शाक्य	-4525
▁प्रचण्डले	-4526
▁बाहिरि	-4527
ड्न	-4528
▁निर्यात	-4529
▁खारेज	-4530
न्नु	-4531
वडा	-4532
▁विश्लेषण	-4533
स्ने	-4534
▁दुरुपयोग	-4535
▁प्रधानमन्त्रीको	-4536
▁एफ	-4537
▁आपूर्ति	-4538
▁सिक्	-4539
▁राजीनामा	-4540
▁आगो	-4541
▁मनोर	-4542
▁दुर्गा	-4543
▁फोहोर	-4544
▁उभि	-4545
▁कपडा	-4546
▁गायिका	-4547
▁टाउको	-4548
▁हेर्नु	-4549
▁महिलालाई	-4550
▁उम्मेदवारी	-4551
▁संस्	-4552
▁तरिकाले	-4553
▁आदिवासी	-4554
नीले	-4555
▁प्रेर	-4556
▁लगाएका	-4557
▁भित्र्या	-4558
▁मल	-4559
▁मी	-4560
▁कुकुर	-4561
्लो	-4562
ेलले	-4563
▁मारि	-4564
▁ठो	-4565
▁तारि	-4566
।”	-4567
▁विजेता	-4568
▁सके	-4569
▁मिश्र	-4570
▁जोडिएको	-4571
▁हावा	-4572
▁जातीय	-4573
▁वृद्ध	-4574
स्ति	-4575
▁डुब	-4576
▁रमाइलो	-4577
▁दीर्घ	-4578
▁ग्या	-4579
औं	-4580
▁जहाज	-4581
▁गित	-4582
▁राजेन्द्र	-4583
▁अभिव्यक्ति	-4584
यान	-4585
मूलक	-4586
रेको	-4587
वद्ध	-4588
▁गीतको	-4589
▁कुराको	-4590
▁कार्यान्वयनमा	-4591
▁प्रष्ट	-4592
▁कार्यालयको	-4593
गि	-4594
▁आधारभूत	-4595
▁क्षेत्रलाई	-4596
▁लागेर	-4597
▁परामर्श	-4598
▁चलाउन	-4599
▁नदिने	-4600
▁खालको	-4601
▁घटनामा	-4602
▁प्रतिवेद	-4603
▁तनाव	-4604
रहने	-4605
▁जोड्ने	-4606
▁प्रशास	-4607
▁समितिमा	-4608
▁)	-4609
▁निष्कर्ष	-4610
▁यहाँको	-4611
▁टेलिभिजन	-4612
▁सम्मा	-4613
सेव	-4614
▁धन्यवाद	-4615
▁विनियोजन	-4616
▁पहाड	-4617
▁त्या	-4618
▁चेतावनी	-4619
▁मन्त्रालयको	-4620
ईमा	-4621
▁पञ्चा	-4622
▁कान्ति	-4623
▁मनाउने	-4624
▁प्रकृति	-4625
न्ह	-4626
न्यास	-4627
▁मामिला	-4628
▁ढोका	-4629
▁खोला	-4630
▁सधैं	-4631
जत	-4632
▁साध	-4633
▁टिप्पणी	-4634
▁सन	-4635
▁नभएका	-4636
▁मद्द	-4637
▁सल्लाहकार	-4638
is	-4639
▁सत्	-4640
▁मस्यौ	-4641
कुरा	-4642
▁हतियार	-4643
▁वर्षे	-4644
▁लगभग	-4645
▁नरहेको	-4646
दिएको	-4647
▁हैसिय	-4648
▁लाइन	-4649
▁राजपा	-4650
▁बेल	-4651
▁नराम	-4652
▁मोदी	-4653
▁पर्ख	-4654
ंख	-4655
▁बहुमत	-4656
▁न्यौपाने	-4657
▁प्रबन्ध	-4658
▁ललितपुर	-4659
▁नागरिकको	-4660
▁समृद्धिको	-4661
्वान	-4662
▁कुर	-4663
▁खुट्टा	-4664
▁उदय	-4665
▁रोप	-4666
▁I	-4667
▁आरोपमा	-4668
मुखी	-4669
बुझ	-4670
▁आउँदा	-4671
▁दृश्य	-4672
▁सेमिफाइ	-4673
क्सन	-4674
▁मस्यौदा	-4675
▁यहि	-4676
▁दुइ	-4677
शै	-4678
▁वेब	-4679
▁दावी	-4680
▁कोठा	-4681
▁अवधारणा	-4682
▁बाटोमा	-4683
ामीण	-4684
▁आन्दोलनमा	-4685
उमा	-4686
कका	-4687
▁बढाएको	-4688
▁हवाई	-4689
▁बुद्धि	-4690
गरमाथा	-4691
▁खुल्ला	-4692
▁बसोबास	-4693
▁आकाश	-4694
▁एन्	-4695
▁खेल्न	-4696
▁नरेन्द्र	-4697
▁जस	-4698
▁सहि	-4699
▁आकर्षण	-4700
▁चिसो	-4701
▁६५	-4702
▁स्कु	-4703
एसपी	-4704
▁भइरहेका	-4705
▁समाजका	-4706
▁दर्शन	-4707
▁विश्वका	-4708
▁लामिछाने	-4709
▁बनाई	-4710
मध	-4711
▁ठेक्का	-4712
▁पोखरेलले	-4713
▁f	-4714
▁दूतावास	-4715
▁पाई	-4716
दैनन्	-4717
सीमा	-4718
▁कठिन	-4719
काउने	-4720
▁बेलु	-4721
रै	-4722
व्	-4723
बाद	-4724
▁ग्रामीण	-4725
▁वर्षपछि	-4726
▁दोश्रो	-4727
ौट	-4728
हिता	-4729
▁गर्यो	-4730
▁निवेदन	-4731
▁ग्रहण	-4732
▁परिवारको	-4733
प्रपा	-4734
ियत	-4735
नेन्द्र	-4736
▁जटिल	-4737
▁ठेक	-4738
▁चलेको	-4739
रिक्त	-4740
▁जसलाई	-4741
▁सभामुख	-4742
▁नृत्य	-4743
▁पशुपति	-4744
▁हुँदैछ	-4745
▁ठहर	-4746
▁नायिका	-4747
थ्य	-4748
▁चल्	-4749
▁वृ	-4750
३०	-4751
▁लिए	-4752
▁च्याम्पियन	-4753
तक	-4754
दूर	-4755
▁प्ले	-4756
पुग्	-4757
▁देखी	-4758
▁काभ	-4759
▁माथिल्लो	-4760
ात	-4761
▁गर्भ	-4762
▁उपरीक्षक	-4763
▁रहन्छ	-4764
ion	-4765
▁अलग	-4766
▁सिनेमा	-4767
▁रुकु	-4768
▁कन्	-4769
▁प्रोत्	-4770
▁शंका	-4771
▁प्रारम्भिक	-4772
▁खनाल	-4773
▁स्वर	-4774
▁परम्परागत	-4775
▁प्रक्रियामा	-4776
▁लिइ	-4777
▁चोरी	-4778
▁प्रिय	-4779
▁औद्योगिक	-4780
▁शारी	-4781
▁सञ्चालित	-4782
▁फ्रान्स	-4783
▁अगुवा	-4784
▁तयारीमा	-4785
▁अश	-4786
▁चलाउने	-4787
षि	-4788
न्डै	-4789
▁विव	-4790
▁डिभिजन	-4791
▁जनाइएको	-4792
▁विषयलाई	-4793
▁भगवान	-4794
▁परिवारका	-4795
▁देखेर	-4796
▁रह्यो	-4797
▁स्मरण	-4798
▁नोट	-4799
दीप	-4800
▁यसपटक	-4801
▁सन्तोष	-4802
▁हुनेछन्	-4803
▁बुबा	-4804
▁कमजो	-4805
▁धनी	-4806
▁बैशाख	-4807
▁माध	-4808
▁भाडा	-4809
▁अतिरिक्त	-4810
▁भार	-4811
▁दीपक	-4812
▁समूहले	-4813
▁ध्य	-4814
▁गठबन्धन	-4815
पल्ट	-4816
▁सिन्धु	-4817
▁बिस्तार	-4818
▁प्रोत्सा	-4819
▁पठाएको	-4820
▁फेरी	-4821
न्थी	-4822
▁शक्तिशाली	-4823
हरूसँग	-4824
लिन	-4825
त्मा	-4826
▁क्रो	-4827
▁पुग्यो	-4828
▁अभियानमा	-4829
भूमि	-4830
▁विशि	-4831
▁पूर्वी	-4832
दृ	-4833
▁सगरमाथा	-4834
न्यायाधीश	-4835
▁छात्र	-4836
▁चीनले	-4837
▁गोपाल	-4838
▁सदस्यीय	-4839
▁जागिर	-4840
▁कर्मचारीको	-4841
▁गरिन्	-4842
▁फिल्ममा	-4843
▁केन्द्रले	-4844
▁राना	-4845
▁एमालेले	-4846
▁थालिएको	-4847
▁सम्वन्ध	-4848
जनमा	-4849
▁जनजाति	-4850
नुपर्दछ	-4851
▁राप्रपा	-4852
▁मोह	-4853
▁पूँजी	-4854
▁अनौ	-4855
▁मासिक	-4856
▁थाल्यो	-4857
धै	-4858
▁समझदारी	-4859
▁हिन्दू	-4860
▁अफि	-4861
▁सेनाको	-4862
▁शारीरिक	-4863
▁सम्पादन	-4864
चोक	-4865
▁सघ	-4866
▁सूची	-4867
▁देखियो	-4868
▁चलचित्रमा	-4869
▁खोटा	-4870
▁विकसित	-4871
▁हजुर	-4872
हिरो	-4873
्छन्	-4874
▁विहान	-4875
▁कदम	-4876
▁रेख	-4877
▁मिल्ने	-4878
▁माध्य	-4879
▁आह्वान	-4880
▁w	-4881
▁खेल्	-4882
आफ्नो	-4883
▁उत्साह	-4884
िनो	-4885
▁जिम्मेवार	-4886
▁सक्षम	-4887
▁साहित्यकार	-4888
▁कार्कीले	-4889
▁छाया	-4890
▁टेलिक	-4891
▁चौकी	-4892
▁कुरालाई	-4893
चाहि	-4894
▁बाढ	-4895
▁दिनसम्म	-4896
▁त्र	-4897
▁खाली	-4898
▁संघले	-4899
क्सा	-4900
▁भुट	-4901
७३	-4902
▁लघु	-4903
▁चरित्र	-4904
▁तीज	-4905
▁किताब	-4906
▁केन्द्रको	-4907
यले	-4908
बहिनी	-4909
रिव	-4910
▁बस्नेत	-4911
▁अस्ति	-4912
▁तै	-4913
▁इलाका	-4914
▁गर्नुहोस्	-4915
▁अर्जुन	-4916
▁भत्ता	-4917
▁बोल्	-4918
▁विज्ञा	-4919
▁जीवनको	-4920
▁नेपालीले	-4921
▁चालु	-4922
▁परम	-4923
▁इन	-4924
▁जडान	-4925
▁कप्ता	-4926
▁निर्माता	-4927
ेसी	-4928
▁पोखरामा	-4929
▁तपाईंले	-4930
ब्बा	-4931
▁चाम	-4932
▁पृष्ठ	-4933
▁प्रती	-4934
▁खति	-4935
ालु	-4936
▁आयु	-4937
▁नवलपरा	-4938
्रिक	-4939
▁विभेद	-4940
मुना	-4941
▁२०१७	-4942
▁पुर्व	-4943
उँछन्	-4944
▁झन्डै	-4945
वृद्धि	-4946
▁आकार	-4947
ारण	-4948
▁बिग्र	-4949
▁आकर्षक	-4950
▁चेक	-4951
▁प्रतिभा	-4952
▁नुवाकोट	-4953
▁बरा	-4954
▁घिमिरे	-4955
▁गरिसकेका	-4956
▁पेशा	-4957
▁अवरोध	-4958
▁संख्यामा	-4959
▁बचत	-4960
▁हाउ	-4961
▁केटा	-4962
▁रिज	-4963
▁अन्तराष्ट्रिय	-4964
आमा	-4965
▁बर्दि	-4966
▁महानगर	-4967
▁कम्प्युट	-4968
▁प्रकट	-4969
▁टोल	-4970
सिद्ध	-4971
शास्त्र	-4972
▁सक्नु	-4973
▁मर्मत	-4974
▁अप्ठ	-4975
▁रेकर्ड	-4976
▁जितेको	-4977
▁कोठ	-4978
▁तस्बिर	-4979
▁पाउनु	-4980
▁प्रवद्र्धन	-4981
▁मक	-4982
▁ठेकेदार	-4983
▁मदन	-4984
▁राख्दै	-4985
टार	-4986
▁बेल्ज	-4987
प्ने	-4988
▁उड	-4989
▁एकीकरण	-4990
मलाई	-4991
▁सायद	-4992
▁सामना	-4993
▁हेरेर	-4994
▁मोहन	-4995
व्यापी	-4996
▁प्राधिकरणले	-4997
▁बाध्यता	-4998
ङ्गो	-4999
▁परिवारलाई	-5000
ईं	-5001
▁रोकि	-5002
▁खतिवडा	-5003
▁पाण्डे	-5004
चीन	-5005
▁यतिबेला	-5006
▁सडकको	-5007
▁जमा	-5008
▁मल्	-5009
▁कल्पना	-5010
▁पद्ध	-5011
दिए	-5012
ौली	-5013
▁201	-5014
▁नेताहरु	-5015
▁शिक्षण	-5016
▁सकिनेछ	-5017
▁सहभागि	-5018
▁बिज	-5019
▁समी	-5020
पीडित	-5021
▁अस्था	-5022
▁उनीहरूलाई	-5023
▁सेन्टर	-5024
▁प्रधानमन्त्रीले	-5025
▁मुद्दामा	-5026
▁धनगढी	-5027
▁चल्ने	-5028
▁मोटरसाइकल	-5029
▁लिखित	-5030
▁सेवामा	-5031
▁टिका	-5032
▁रहेकाले	-5033
▁सुरुवात	-5034
भाष	-5035
▁असह	-5036
्रेजी	-5037
▁आन्दोलनको	-5038
हीँ	-5039
स्वर	-5040
ent	-5041
▁श्रो	-5042
हामी	-5043
▁आधिका	-5044
▁सम्पदा	-5045
▁टेक	-5046
▁नया	-5047
▁क्रि	-5048
▁खण्डमा	-5049
▁देवी	-5050
▁नगरपालिकामा	-5051
▁चर	-5052
▁पाल्	-5053
▁हल्ला	-5054
▁मात्रा	-5055
▁संस्थान	-5056
▁घटेको	-5057
▁विद्रो	-5058
पर्छ	-5059
▁३४	-5060
▁चाँ	-5061
▁खर्ब	-5062
ल्स	-5063
दरबार	-5064
▁व्यक्तित्व	-5065
नुभन्दा	-5066
▁ल्याएर	-5067
फे	-5068
▁संसदमा	-5069
क्सि	-5070
ानको	-5071
▁ह्या	-5072
▁श्रमिक	-5073
▁सहितको	-5074
▁मदि	-5075
▁३७	-5076
▁रहनु	-5077
योग्य	-5078
▁अन्नपूर्ण	-5079
▁नवी	-5080
जात	-5081
क्ष्	-5082
▁कित्ता	-5083
▁पुग्छ	-5084
▁सन्तुल	-5085
▁नकारात्मक	-5086
▁अधिवेश	-5087
▁कांग्रेसको	-5088
▁खुवा	-5089
▁प्रमाणित	-5090
▁दलले	-5091
लागी	-5092
▁समयको	-5093
▁जंग	-5094
▁मद्दत	-5095
▁दीप	-5096
ेदारी	-5097
▁किनकि	-5098
काइ	-5099
▁श्रील	-5100
▁स्वीकृत	-5101
हिक	-5102
▁३८	-5103
▁५१	-5104
बन्द	-5105
राव	-5106
छोरी	-5107
▁विशिष्ट	-5108
▁इन्द्र	-5109
पिट	-5110
▁बिजुली	-5111
▁नाइ	-5112
▁धेर	-5113
▁परिषद	-5114
▁संवाद	-5115
▁तब	-5116
सिए	-5117
▁स्क	-5118
▁माधव	-5119
घरमा	-5120
▁न्यूनतम	-5121
▁खाता	-5122
ed	-5123
▁म्याग्दी	-5124
▁क्यान	-5125
▁स्वस्थ	-5126
▁हृ	-5127
▁रुपा	-5128
▁माझ	-5129
▁चोक	-5130
▁घाटा	-5131
ँु	-5132
नेका	-5133
िरहेका	-5134
▁तथ्याङ्क	-5135
माया	-5136
िरहेको	-5137
▁ज्ञानेन्द्र	-5138
दीले	-5139
▁बेप	-5140
प्रतिको	-5141
▁बाँध	-5142
▁संस्थापक	-5143
▁विशेषज्ञ	-5144
▁उत्तिकै	-5145
▁युवती	-5146
▁केसीको	-5147
▁सजिलै	-5148
▁स्थग	-5149
▁मावि	-5150
▁संस्करण	-5151
▁हस्तक्षेप	-5152
▁जोश	-5153
▁तारिख	-5154
▁बस्दै	-5155
▁संयन्त्र	-5156
हत्या	-5157
▁१००	-5158
ङ्गल	-5159
▁अवैध	-5160
▁कार्यविधि	-5161
▁गुल्मी	-5162
सिना	-5163
▁काँ	-5164
▁कर्त	-5165
▁दिनुभएको	-5166
▁गोप	-5167
▁मही	-5168
▁सद्	-5169
▁बढेर	-5170
लास	-5171
कर्षण	-5172
▁कृति	-5173
ंदा	-5174
▁सीप	-5175
▁युनियन	-5176
टाएर	-5177
▁इन्ड	-5178
धारा	-5179
▁४२	-5180
▁सेनाले	-5181
▁चक्र	-5182
▁रिलिज	-5183
▁चर्चामा	-5184
कल्प	-5185
▁.	-5186
▁त्यसरी	-5187
▁पहिलोपटक	-5188
यती	-5189
▁खोज्ने	-5190
▁ब्रि	-5191
▁पक्षले	-5192
▁श्रीमा	-5193
▁रहि	-5194
▁गर्थे	-5195
▁स्थिर	-5196
▁दियो	-5197
▁स्टार	-5198
__	-5199
ोषण	-5200
▁थपि	-5201
▁नपाउने	-5202
ञ्जन	-5203
एमा	-5204
▁बन्यो	-5205
▁प्य	-5206
र्प	-5207
▁थिएनन्	-5208
भल	-5209
▁अबको	-5210
▁मोडल	-5211
▁शता	-5212
वान्	-5213
शल	-5214
▁तारा	-5215
▁शिक्षाको	-5216
खेर	-5217
वत्	-5218
ुञ्ज	-5219
▁उमेरमा	-5220
ँदैछ	-5221
▁म्याद	-5222
रल	-5223
▁अवलोकन	-5224
▁शैली	-5225
▁प्रिम	-5226
▁धादि	-5227
▁बिराम	-5228
▁क्षेत्रबाट	-5229
▁कार्ड	-5230
▁डिजाइन	-5231
दायी	-5232
▁नेपालबाट	-5233
▁शू	-5234
▁राजनैतिक	-5235
▁गोर्खा	-5236
▁लागे	-5237
ग्राम	-5238
कुमारी	-5239
▁सस्तो	-5240
▁जोशी	-5241
▁कपि	-5242
▁D	-5243
▁संविधानले	-5244
▁स्ना	-5245
सक्यो	-5246
▁पक्कै	-5247
▁कैद	-5248
▁प्रधानन्यायाधीश	-5249
▁गल्ती	-5250
▁मुद्रा	-5251
▁भिडियोमा	-5252
▁मकवान	-5253
ोस्	-5254
ित्तिकै	-5255
▁आएकी	-5256
▁रहेछन्	-5257
ुक्त	-5258
क्कली	-5259
▁उपभोग	-5260
▁लुट	-5261
▁अत्यधिक	-5262
▁थान	-5263
▁लैजाने	-5264
ुङ	-5265
▁?’	-5266
▁देशलाई	-5267
▁अभिनेत्री	-5268
▁ब्राजि	-5269
वती	-5270
▁पछ	-5271
याम	-5272
▁युए	-5273
▁काठ	-5274
छो	-5275
ेलको	-5276
▁कसले	-5277
com	-5278
▁अभिभावक	-5279
ैमा	-5280
खाना	-5281
१९	-5282
▁प्रतिबन्ध	-5283
▁विद्यालयको	-5284
▁भेटघाट	-5285
ह्	-5286
▁खडा	-5287
▁b	-5288
▁धनु	-5289
▁समूहको	-5290
स्फ	-5291
▁ज्यो	-5292
▁तल्लो	-5293
क्रममा	-5294
▁प्रविधिको	-5295
▁प्रयोगकर्ता	-5296
▁योग्य	-5297
त्तर	-5298
▁नेप्	-5299
श्रमिक	-5300
▁परिवारले	-5301
▁सेवाको	-5302
▁नागरिकलाई	-5303
▁अलिक	-5304
ह्र	-5305
▁पेस	-5306
वित	-5307
▁ल्याइएको	-5308
ण्डित	-5309
▁बेपत्ता	-5310
▁B	-5311
▁नलाग	-5312
▁राखी	-5313
▁बैंकका	-5314
नोद	-5315
▁मातृ	-5316
▁शरीरमा	-5317
रस	-5318
▁श्रेष्ठको	-5319
▁स्वरुप	-5320
▁अवरुद्ध	-5321
▁आकर्षित	-5322
▁उपहार	-5323
▁आयोगका	-5324
▁क्रियाकलाप	-5325
▁रुख	-5326
शिल	-5327
epal	-5328
▁ब्यक्ति	-5329
▁जानुप	-5330
▁रसुवा	-5331
ेसँग	-5332
▁संग्रह	-5333
▁रुपन्देही	-5334
▁समाप्त	-5335
▁अंग्रेजी	-5336
▁जोडी	-5337
▁गाउँपालिकाका	-5338
▁थाइ	-5339
▁जात	-5340
▁धितो	-5341
▁जन्मा	-5342
▁खनालले	-5343
▁सवाल	-5344
ाउनुपर्ने	-5345
▁सन्तान	-5346
▁लागत	-5347
याउने	-5348
माल	-5349
▁भरतपुर	-5350
प्ट	-5351
▁अस्थायी	-5352
▁सरोकारवाला	-5353
▁हेरि	-5354
▁रुपैया	-5355
▁हुनसक्ने	-5356
▁दफा	-5357
▁तोकेको	-5358
▁ओभ	-5359
ुरे	-5360
▁अन्तरि	-5361
्यमा	-5362
काउन	-5363
▁नष्ट	-5364
उनुपर्ने	-5365
धीन	-5366
▁शासक	-5367
▁तिनै	-5368
बासी	-5369
▁प्रय	-5370
▁छनौट	-5371
▁चलिरहेको	-5372
जीको	-5373
▁पोष्ट	-5374
▁चितव	-5375
▁नपर्ने	-5376
▁४८	-5377
स्टेक	-5378
▁भाषण	-5379
ew	-5380
▁विसं	-5381
▁ध्याना	-5382
▁लेखिएको	-5383
▁स्वतन्त्रता	-5384
▁दुर्ग	-5385
फर	-5386
▁साहित्यिक	-5387
▁जुनसुकै	-5388
▁एच	-5389
▁नेताले	-5390
▁माओवादीले	-5391
तन	-5392
▁कृषक	-5393
▁फुटब	-5394
▁बसि	-5395
▁नक्कली	-5396
▁सूचीमा	-5397
▁कारा	-5398
वको	-5399
पार	-5400
च्या	-5401
▁काउन्	-5402
▁सम्बन्धि	-5403
▁गुणस्तरीय	-5404
हाले	-5405
▁अरब	-5406
ालमा	-5407
िल्ली	-5408
वानी	-5409
विहीन	-5410
थर	-5411
वारिक	-5412
▁भाउ	-5413
▁बहिनी	-5414
▁थारु	-5415
खन	-5416
▁बनेर	-5417
यौ	-5418
सङ्घ	-5419
▁२०१६	-5420
▁महत्त्वपूर्ण	-5421
▁सरुवा	-5422
▁नियमावली	-5423
▁केन्द्रिय	-5424
ag	-5425
▁चलचित्रको	-5426
रासस	-5427
▁घट्	-5428
▁हिँ	-5429
ंग्	-5430
िकरण	-5431
▁विद्यार्थीलाई	-5432
▁भिन्न	-5433
सत	-5434
▁गिरी	-5435
▁शुक्	-5436
▁एल	-5437
▁तिम्रो	-5438
निर्भर	-5439
▁सँ	-5440
▁काली	-5441
▁कोइरालाले	-5442
▁अदालतको	-5443
▁जै	-5444
▁विच	-5445
▁वायु	-5446
▁हुन्न	-5447
▁संवेदन	-5448
रूपमा	-5449
▁बुवा	-5450
▁समस्याको	-5451
▁विद्युतीय	-5452
▁सर्वाधिक	-5453
▁नायक	-5454
उदै	-5455
ट्टै	-5456
▁लैजान	-5457
▁आमाको	-5458
र्जी	-5459
▁आफुले	-5460
▁वास्तवमा	-5461
एँ	-5462
▁फलफ	-5463
▁हौ	-5464
▁वी	-5465
▁छाडेर	-5466
१५	-5467
डीले	-5468
▁प्रकरण	-5469
▁अस्वी	-5470
▁संचार	-5471
▁हटाउन	-5472
छन	-5473
यरको	-5474
il	-5475
▁कर्मचारीलाई	-5476
▁H	-5477
▁किरण	-5478
▁आधिकारिक	-5479
▁उहाँलाई	-5480
सम्मका	-5481
▁सिर	-5482
▁श्रे	-5483
▁अभियोग	-5484
▁राजधानीमा	-5485
रिवाना	-5486
र्की	-5487
▁खुलेको	-5488
▁बिशेष	-5489
▁पछिल्ला	-5490
▁निकुञ्ज	-5491
▁दिगो	-5492
▁मानिसले	-5493
७६	-5494
▁थापाको	-5495
▁भैरहेको	-5496
▁बन	-5497
▁माध्यमिक	-5498
परिवार	-5499
▁प्राप्	-5500
am	-5501
▁ष	-5502
▁दाइ	-5503
▁मसा	-5504
रहँदा	-5505
▁लगाइएको	-5506
▁खिच	-5507
▁होम	-5508
वरी	-5509
▁यम	-5510
ङ्ग्रेस	-5511
▁अफग	-5512
ूहिक	-5513
▁सभामा	-5514
डाको	-5515
▁पर्वत	-5516
▁समयसम्म	-5517
▁एकद	-5518
▁लम	-5519
▁विश्वमा	-5520
▁»	-5521
▁कूट	-5522
▁ल्याइ	-5523
क्वा	-5524
▁नम्बरको	-5525
▁जरिवाना	-5526
११	-5527
▁क्रमशः	-5528
▁अर्थमन्त्री	-5529
▁बाँड	-5530
▁महँग	-5531
as	-5532
कर्ताको	-5533
▁क्रान्तिकारी	-5534
el	-5535
▁मुलुकका	-5536
स्सा	-5537
धर	-5538
▁तपाइँ	-5539
▁पारिवारिक	-5540
▁रहनेछ	-5541
गरीय	-5542
▁कमजोरी	-5543
▁एकपटक	-5544
▁जनयुद्ध	-5545
▁दशैँ	-5546
▁चित्त	-5547
जीवन	-5548
▁बागलुङ	-5549
▁तन	-5550
▁अंश	-5551
▁युट	-5552
▁शरण	-5553
▁पढ्ने	-5554
▁जनताका	-5555
▁सेट	-5556
▁फिल्मको	-5557
▁वेला	-5558
▁मधु	-5559
▁पोस्ट	-5560
ब्ब	-5561
विका	-5562
▁एन्ड	-5563
▁दोल	-5564
▁प्रायः	-5565
ृतमा	-5566
▁कर्मचारीले	-5567
ँट	-5568
▁बिकास	-5569
▁ध्यानाकर्षण	-5570
्चोक	-5571
▁सिरि	-5572
▁तत्व	-5573
▁मूल्यमा	-5574
जुङ	-5575
▁देखाउन	-5576
▁कार्यपालिका	-5577
▁सामूहिक	-5578
▁साझेदारी	-5579
▁भारतबाट	-5580
लिम	-5581
▁मानवीय	-5582
▁गाउँपालिकामा	-5583
खोला	-5584
▁महाधिवेशन	-5585
▁सुदूर	-5586
▁रणनीति	-5587
▁बिहे	-5588
पेक्ष	-5589
▁खालका	-5590
▁लिनु	-5591
▁रनको	-5592
▁सत्त	-5593
▁o	-5594
▁नेताहरुले	-5595
कां	-5596
▁शिखर	-5597
▁अस्ट्र	-5598
▁वर	-5599
▁आइरहेको	-5600
जाको	-5601
▁प्राथमिकतामा	-5602
▁अधिकारको	-5603
▁किसिमका	-5604
▁राम्रा	-5605
क्की	-5606
ेन्टि	-5607
▁अत्यन्तै	-5608
▁बिदेश	-5609
▁स्वीकृति	-5610
▁कार्यकाल	-5611
▁कार्यक्रमलाई	-5612
▁बिद्य	-5613
▁लेखेको	-5614
▁विद्यार्थीको	-5615
▁संविधानमा	-5616
लिस	-5617
▁मुस्ता	-5618
ेँ	-5619
लम्बन	-5620
▁re	-5621
▁कहिलेका	-5622
▁महानगरीय	-5623
▁पारिश्रमिक	-5624
▁भइसकेका	-5625
▁दिनदेखि	-5626
फाई	-5627
▁गजल	-5628
एमाले	-5629
पन्थी	-5630
▁युग	-5631
▁बजेसम्म	-5632
▁वर्षभित्र	-5633
संगै	-5634
▁स्कूल	-5635
▁पला	-5636
▁बारा	-5637
▁देखिए	-5638
▁टुंगो	-5639
▁४४	-5640
▁भर्खरै	-5641
षाध्यक्ष	-5642
▁निजाम	-5643
▁पाकिस्तान	-5644
▁’	-5645
▁खराब	-5646
▁चालू	-5647
▁पूरै	-5648
▁तुलसी	-5649
▁विज्ञापन	-5650
नस	-5651
एनन्	-5652
▁उन्न	-5653
▁गरौं	-5654
▁पार्टीमा	-5655
▁आख	-5656
▁कम्पनीका	-5657
▁नसकिने	-5658
▁दोषी	-5659
▁मन्दिरमा	-5660
स्टि	-5661
धारित	-5662
पाल्चोक	-5663
▁पराजुली	-5664
▁५२	-5665
यमित	-5666
ट्या	-5667
अहिले	-5668
▁काठमाडा	-5669
▁दिई	-5670
▁कौ	-5671
▁सकेनन्	-5672
भरी	-5673
दत्त	-5674
नायक	-5675
▁दरले	-5676
▁धेरैले	-5677
▁निरीक्षक	-5678
▁पं	-5679
▁ग्राम	-5680
▁यिनी	-5681
▁नराम्रो	-5682
▁गर्नेछन्	-5683
ल्का	-5684
र्दिक	-5685
▁एकदमै	-5686
▁स्वर्ण	-5687
▁खड्काले	-5688
ख्य	-5689
▁अपहरण	-5690
▁पाठ्य	-5691
▁सुन्न	-5692
▁पुग्दा	-5693
and	-5694
▁आशंका	-5695
▁दुईवटा	-5696
▁महतो	-5697
▁स्वच्छ	-5698
हरूबाट	-5699
▁नमा	-5700
▁४३	-5701
▁चाहन्छ	-5702
▁संघीयता	-5703
हिर	-5704
▁आसपा	-5705
▁छठ	-5706
▁कप्तान	-5707
▁मानिसहरु	-5708
र्ना	-5709
▁पुनःनिर्माण	-5710
▁मिल	-5711
▁अवस्थित	-5712
माध्यम	-5713
गन	-5714
चाह	-5715
▁फाउ	-5716
▁नेट	-5717
▁दोलखा	-5718
▁स्वर्ग	-5719
▁सहायता	-5720
यू	-5721
ेरा	-5722
▁निक्षेप	-5723
▁ध्व	-5724
▁अनुभूति	-5725
▁प्रतिवद्ध	-5726
पले	-5727
▁३९	-5728
▁सद्भाव	-5729
▁पदक	-5730
▁भेटिएको	-5731
▁चाहने	-5732
▁बढिरहेको	-5733
कता	-5734
स्थापित	-5735
म्की	-5736
▁नैतिक	-5737
▁काङ्ग्रेस	-5738
१२	-5739
उप	-5740
लेट	-5741
▁गंगा	-5742
▁चाहेको	-5743
वस्तु	-5744
▁रोल्पा	-5745
▁हार्दिक	-5746
इरहेका	-5747
लट	-5748
ण्डको	-5749
ेन्ड	-5750
औँ	-5751
▁गर्नुहु	-5752
ंस	-5753
▁वडाध्यक्ष	-5754
▁काँग्रेसका	-5755
▁जिन्द	-5756
▁समारोहमा	-5757
काएर	-5758
▁सिद्ध	-5759
खल	-5760
▁क्वा	-5761
▁समीक्षा	-5762
▁वस	-5763
र्मी	-5764
वक्ता	-5765
▁उहाँका	-5766
मर	-5767
पार्क	-5768
▁पालना	-5769
▁बाम	-5770
▁पत्रकारिता	-5771
▁तपाईंलाई	-5772
यात्रा	-5773
▁प्रशस्त	-5774
▁प्रहरीका	-5775
र्पण	-5776
▁छोराछोरी	-5777
▁क्याम्पस	-5778
▁लाभा	-5779
▁रिस	-5780
▁गरेमा	-5781
▁कल्या	-5782
▁निम्न	-5783
▁आदान	-5784
स्वास्थ्य	-5785
▁कानूनी	-5786
योर्क	-5787
▁निम	-5788
▁बृह	-5789
et	-5790
▁मदिरा	-5791
▁सरकारसँग	-5792
▁सुशासन	-5793
▁गौतमले	-5794
▁बर्षको	-5795
न्धन	-5796
▁दाङ	-5797
▁भेट्न	-5798
▁सेवाग्राही	-5799
▁विवेक	-5800
▁कामना	-5801
▁ठाकुर	-5802
▁सशक्त	-5803
प्टे	-5804
▁चाहन्छु	-5805
▁कमिटी	-5806
▁घन्टा	-5807
डिएको	-5808
▁कालि	-5809
▁अग्रता	-5810
▁५६	-5811
▁सेतो	-5812
ें	-5813
हाइ	-5814
काको	-5815
▁भिड	-5816
▁साँच्च	-5817
▁रत्न	-5818
ेती	-5819
▁सिन्धुपाल्चोक	-5820
गरि	-5821
शेर	-5822
▁उस्तै	-5823
▁ग्यास	-5824
▁कुखु	-5825
हिने	-5826
▁रवि	-5827
▁इन्टरने	-5828
▁प्रशंसा	-5829
▁हकमा	-5830
▁संस्थामा	-5831
▁स्थानीयले	-5832
▁बाली	-5833
्वाइ	-5834
▁मान्ने	-5835
▁अह	-5836
▁समाजले	-5837
▁चाहिन्छ	-5838
▁सिंहले	-5839
▁छिट्टै	-5840
▁ट्	-5841
▁गिरि	-5842
▁रामचन्द्र	-5843
▁पाल्पा	-5844
▁प्रस्तुति	-5845
विद्	-5846
▁अभिनेता	-5847
▁कैलाली	-5848
▁कोठामा	-5849
▁रानी	-5850
मैत्री	-5851
▁सुरुमा	-5852
▁अस्पतालको	-5853
▁निर्णा	-5854
▁ढुंग	-5855
▁अल्प	-5856
▁दान	-5857
▁नदीमा	-5858
▁कन्स	-5859
▁गरिए	-5860
▁तस	-5861
▁गर्दैन	-5862
ेमी	-5863
▁कुरो	-5864
▁राष्ट्रको	-5865
▁स्थगित	-5866
चाहिँ	-5867
ac	-5868
▁लेखेका	-5869
साधन	-5870
▁शून्य	-5871
▁आत्महत्या	-5872
पट	-5873
▁ब्यवस्था	-5874
▁तपाईको	-5875
▁राती	-5876
▁पति	-5877
▁गण्डकी	-5878
ँदे	-5879
▁गराउनु	-5880
▁गुट	-5881
▁भविष्यमा	-5882
▁अपराधी	-5883
▁मन्त्रालयमा	-5884
▁मङ्	-5885
▁जनाए	-5886
▁करिव	-5887
▁४१	-5888
▁डिजि	-5889
▁शास्त्र	-5890
▁कर्तव्य	-5891
▁देखाउने	-5892
▁त्यसकारण	-5893
▁नपुग	-5894
▁ढकालले	-5895
▁चोट	-5896
अधिकार	-5897
▁नाकाबन्दी	-5898
▁सिंहदरबार	-5899
▁बिमा	-5900
▁चर्को	-5901
▁भन्यो	-5902
▁सक्नुहुन्छ	-5903
ग्रस्त	-5904
▁बिषयमा	-5905
▁भानु	-5906
▁बनाउँदै	-5907
▁कान्छ	-5908
▁गर्नै	-5909
▁व्याख्या	-5910
▁पवि	-5911
▁उत्तम	-5912
▁छोडेर	-5913
▁आफुलाई	-5914
▁निर्वाचनका	-5915
ँचो	-5916
काई	-5917
▁भिसा	-5918
▁कामका	-5919
▁वार	-5920
▁रोकिएको	-5921
▁जगत	-5922
▁निकायको	-5923
▁उपप्रमुख	-5924
भ्	-5925
▁निवासी	-5926
▁विमानस्थलमा	-5927
▁दिनुपर्छ	-5928
साइट	-5929
▁पठाउन	-5930
▁संवेदनशील	-5931
▁कल्याण	-5932
▁निर्णायक	-5933
▁समुदायका	-5934
ह्न	-5935
सरकारी	-5936
▁खासगरी	-5937
▁कान्तिपुर	-5938
▁परिक	-5939
पक्षीय	-5940
▁फाइनल	-5941
▁सरल	-5942
▁बलिउड	-5943
सनको	-5944
▁असल	-5945
▁किशोर	-5946
▁गएपछि	-5947
▁परिणत	-5948
▁क्षेत्रफल	-5949
▁ठिक	-5950
▁हिमाली	-5951
स्पद	-5952
▁विशाल	-5953
▁राखि	-5954
▁संगै	-5955
▁प्रहरीलाई	-5956
▁श्रीमान	-5957
▁समायोजन	-5958
▁गोक	-5959
▁लिम्बु	-5960
▁बस्नेतले	-5961
ानामा	-5962
▁पण्डित	-5963
▁सुनसरी	-5964
▁लेख्न	-5965
सेन	-5966
▁तातो	-5967
▁गै	-5968
▁हङकङ	-5969
▁हिउँ	-5970
दको	-5971
▁हिरा	-5972
लोड	-5973
▁प्रब	-5974
▁नगर्न	-5975
जिङ	-5976
▁वटै	-5977
▁प्रयत्न	-5978
गं	-5979
▁दसैं	-5980
▁युवराज	-5981
▁जित्न	-5982
जले	-5983
मुनि	-5984
▁विष	-5985
मुक्त	-5986
▁भरमा	-5987
याको	-5988
▁त्यहाँको	-5989
▁रोगको	-5990
लोक	-5991
किल	-5992
▁बोल्न	-5993
▁सत	-5994
▁सिल	-5995
▁गतिमा	-5996
▁सहसचिव	-5997
▁बोकेको	-5998
▁उद	-5999
▁मल्ल	-6000
▁शुद्ध	-6001
▁प्रस	-6002
▁बानी	-6003
▁सामाग्री	-6004
▁लोड	-6005
▁विद्यार्थीले	-6006
▁फ्	-6007
▁गुप्	-6008
▁स्रोतले	-6009
▁सुरक्षाको	-6010
▁मनाउन	-6011
ur	-6012
▁जाँदै	-6013
00	-6014
चार्ज	-6015
ण्डर	-6016
▁गराए	-6017
▁उत्तरी	-6018
▁पारेका	-6019
▁झि	-6020
नुको	-6021
▁बनाउँछ	-6022
▁एकताको	-6023
▁पह	-6024
▁५८	-6025
▁आचार्यले	-6026
निङ	-6027
ाराम	-6028
लाग्दो	-6029
▁कुराहरु	-6030
▁राम्रै	-6031
▁जला	-6032
▁सिम	-6033
वृत्ति	-6034
▁दिवसको	-6035
▁स्वाभाविक	-6036
किन	-6037
▁अभावमा	-6038
▁ज्योति	-6039
▁भारी	-6040
▁तुरु	-6041
काउ	-6042
दायक	-6043
un	-6044
ङ्कन	-6045
▁एल्	-6046
▁छुट्या	-6047
ीता	-6048
▁बङ्ग	-6049
▁४६	-6050
▁प्रचलन	-6051
▁चौधरीले	-6052
केको	-6053
▁एसियाली	-6054
मणि	-6055
▁चेतना	-6056
▁तसर्थ	-6057
▁प्रदीप	-6058
▁रोनाल्	-6059
स्न	-6060
संर	-6061
▁बाहु	-6062
▁हद	-6063
▁पत्नी	-6064
▁सुपर	-6065
अब	-6066
क्कर	-6067
अप	-6068
▁सभाको	-6069
▁पठाइ	-6070
▁सम्मानित	-6071
▁गाँउ	-6072
▁आतंक	-6073
▁कूल	-6074
▁देखिन	-6075
▁क्षमताको	-6076
▁दिएपछि	-6077
▁दिनेश	-6078
▁रामबहादुर	-6079
▁मेसिन	-6080
थु	-6081
निस	-6082
▁ट्रम्पले	-6083
महा	-6084
गोलिक	-6085
▁चाहिने	-6086
न्सको	-6087
▁रोमा	-6088
▁हृदय	-6089
लोमा	-6090
▁ओम	-6091
▁टन	-6092
▁शाहले	-6093
ानिस्ता	-6094
तया	-6095
▁धरान	-6096
▁दिदीबहिनी	-6097
टामा	-6098
▁झो	-6099
किएका	-6100
▁भव्य	-6101
▁चिन्त	-6102
▁रुपैयाँको	-6103
▁इन्स	-6104
▁चाडपर्	-6105
▁लाग्दैन	-6106
▁आद	-6107
प्रकाश	-6108
खत	-6109
▁वर्ण	-6110
▁तुरुन्त	-6111
्राइ	-6112
▁थियौं	-6113
▁प्रान्त	-6114
▁ब्यब	-6115
▁विद्यालयका	-6116
ड्दै	-6117
र्फत्	-6118
▁किशोरी	-6119
▁जसका	-6120
▁आबद्ध	-6121
▁नेपालगञ्ज	-6122
▁राष्ट्रसंघ	-6123
▁भीड	-6124
▁नु	-6125
▁दाँ	-6126
भौ	-6127
ेकाले	-6128
▁बुझाइ	-6129
▁छलफलमा	-6130
▁अनुरुप	-6131
▁कोषाध्यक्ष	-6132
▁फरा	-6133
▁सधैँ	-6134
षे	-6135
▁ज्ञापन	-6136
▁प्रोत्साहन	-6137
▁बाइ	-6138
▁साब	-6139
▁कम्प्युटर	-6140
▁अडान	-6141
▁तपाईँ	-6142
७२	-6143
▁आक्रो	-6144
राय	-6145
▁फाइनलमा	-6146
▁श्रीमान्	-6147
▁लगानीमा	-6148
▁अचम्म	-6149
▁उठाउन	-6150
▁सिँच	-6151
▁शौ	-6152
निकी	-6153
पालन	-6154
▁त्याग	-6155
▁प्रसिद्ध	-6156
▁प्रालि	-6157
▁त्यसबेला	-6158
▁मसान्त	-6159
▁घि	-6160
▁सृजना	-6161
▁बताइ	-6162
▁अनुकूल	-6163
▁उपाध्या	-6164
श्री	-6165
▁हारा	-6166
▁खेलेको	-6167
▁फौ	-6168
▁मानिसलाई	-6169
▁व्र	-6170
त्तिकै	-6171
▁उठाउने	-6172
▁चुक्ता	-6173
▁उपेन्द्र	-6174
▁बोल्ने	-6175
▁लड	-6176
▁ल्याएका	-6177
▁अस्तित्व	-6178
▁सैन्य	-6179
▁लिई	-6180
मित्व	-6181
स्थापन	-6182
▁हिम	-6183
▁क्लव	-6184
▁भन्नेमा	-6185
▁प्रशासक	-6186
▁निकायले	-6187
▁तिब्ब	-6188
नारायण	-6189
▁स्तरमा	-6190
▁पात	-6191
्यौं	-6192
▁पट	-6193
▁रहँदा	-6194
▁रुकुम	-6195
▁साविक	-6196
िती	-6197
भित्रको	-6198
देशक	-6199
▁इन्जिनियर	-6200
।'	-6201
▁बोलको	-6202
▁भौगोलिक	-6203
▁क्षण	-6204
▁क्रोए	-6205
▁सुवेद	-6206
▁प्रिमियर	-6207
▁सुनको	-6208
्ररी	-6209
▁लाग्दा	-6210
शनल	-6211
वेदी	-6212
▁अधिकारीको	-6213
▁व्यवस्थापिका	-6214
,‘	-6215
▁घाम	-6216
स्थापना	-6217
▁हुदा	-6218
▁संयोजकत्वमा	-6219
ाए	-6220
कियो	-6221
▁हराएको	-6222
ro	-6223
विश्वास	-6224
▁उत्पादनमा	-6225
▁त्यहाँका	-6226
राले	-6227
▁८५	-6228
▁तुलना	-6229
▁श्रद्धा	-6230
▁प्रि	-6231
▁पारदर्श	-6232
▁गई	-6233
▁बू	-6234
शालामा	-6235
▁४९	-6236
▁भएकै	-6237
▁इलाम	-6238
कारले	-6239
▁उर्जा	-6240
▁चाँडै	-6241
▁प्याक	-6242
▁नागरिकले	-6243
▁निजामती	-6244
▁होइनन्	-6245
▁गराई	-6246
▁विपक्षी	-6247
▁प्रणालीमा	-6248
▁दिइने	-6249
▁लगत्तै	-6250
यस	-6251
च्छेद	-6252
भाषा	-6253
▁रहर	-6254
▁सेप्टे	-6255
▁किसानले	-6256
▁नबुझ	-6257
▁बस्त	-6258
▁करा	-6259
▁आर्जन	-6260
▁परिमा	-6261
प्रसार	-6262
▁भद्र	-6263
▁उचाइ	-6264
वरले	-6265
ुकी	-6266
आवास	-6267
गणना	-6268
▁बगा	-6269
▁नमुना	-6270
▁द्वारा	-6271
▁स्वास्थ्यमा	-6272
खे	-6273
प्रद	-6274
▁सर्वे	-6275
▁महर्जन	-6276
कल्पिक	-6277
▁बालक	-6278
यरमा	-6279
▁डाटा	-6280
न्याय	-6281
▁बेइ	-6282
▁पुगि	-6283
जन्तु	-6284
▁राखे	-6285
कस्	-6286
▁अन्तरक्रिया	-6287
▁अमर	-6288
▁हौं	-6289
▁बैंकिङ	-6290
हको	-6291
ज्यू	-6292
▁मानिएको	-6293
वट	-6294
स्तर	-6295
▁अन्ध	-6296
▁रेड	-6297
डीमा	-6298
▁भ्रमणका	-6299
▁नेपालीलाई	-6300
ेलमा	-6301
▁०६	-6302
▁पार्दै	-6303
▁पश्चात	-6304
▁गुणा	-6305
▁दिदै	-6306
मात्रै	-6307
▁भन्छिन्	-6308
▁रहेन	-6309
▁सेन्ट	-6310
सिप	-6311
▁F	-6312
▁प्रभु	-6313
▁होलान्	-6314
▁त्यसबाट	-6315
शैली	-6316
▁सम्मको	-6317
कू	-6318
▁५३	-6319
▁वीरेन्द्र	-6320
▁व्यवसायीले	-6321
▁विर	-6322
▁उप्र	-6323
▁असन्तुष्टि	-6324
ट्स	-6325
▁तर्	-6326
▁बराबर	-6327
▁इतिहासमा	-6328
▁अफगानिस्ता	-6329
▁आदर्श	-6330
▁परिचित	-6331
न्सले	-6332
▁व्यापारिक	-6333
▁बरि	-6334
▁नायब	-6335
▁सङ्कलन	-6336
▁महोत्त	-6337
▁सहमत	-6338
▁भोक	-6339
▁निषे	-6340
▁रेखा	-6341
▁मोरङ	-6342
▁अस्पतालका	-6343
▁बजारको	-6344
▁दाजुभाइ	-6345
▁निर्धारित	-6346
▁रोनाल्डो	-6347
▁आस्था	-6348
▁अनियमित	-6349
▁हाराहारी	-6350
▁कब्जा	-6351
▁ताप	-6352
▁सिमेन्ट	-6353
▁खरी	-6354
्वी	-6355
▁५४	-6356
▁स्वामित्व	-6357
दश	-6358
ज्यालो	-6359
▁अनशन	-6360
हाम	-6361
▁”	-6362
▁डट	-6363
▁मङ्सिर	-6364
▁यात्रामा	-6365
▁बृद्धि	-6366
▁नेताहरू	-6367
▁काय	-6368
ालगायत	-6369
निर्वा	-6370
▁बहि	-6371
सम्ममा	-6372
▁जनतामा	-6373
▁विश्वको	-6374
फु	-6375
वण	-6376
▁गर्दैछ	-6377
▁यसबारे	-6378
▁समूहका	-6379
▁हुनुहुन्थ्यो	-6380
पुर्ण	-6381
▁भेटि	-6382
▁ः	-6383
▁तत्कालिन	-6384
▁निमा	-6385
▁हुनुभएको	-6386
▁शिशु	-6387
ेसँगै	-6388
थान	-6389
्युब	-6390
▁साम्रा	-6391
▁प्रतिवेदनमा	-6392
▁उम	-6393
▁देउसी	-6394
▁एमालेको	-6395
▁झनै	-6396
▁विपरी	-6397
ङ्गले	-6398
▁पारी	-6399
टेड	-6400
ट्टी	-6401
▁एशिया	-6402
▁गाउँपालिकाले	-6403
▁अफ्र	-6404
१८	-6405
हामीले	-6406
▁मैत्री	-6407
▁संकट	-6408
▁सुवेदी	-6409
▁नलि	-6410
▁किरा	-6411
गडा	-6412
▁स्मृति	-6413
▁क्रियाशील	-6414
टाएको	-6415
▁इंग्	-6416
▁गाली	-6417
▁आफैले	-6418
▁आगलागी	-6419
कहाँ	-6420
▁पर्सा	-6421
▁पल्	-6422
▁किन्न	-6423
▁छैन्	-6424
▁गरेकाले	-6425
▁विज्ञप्तिमा	-6426
▁फलफूल	-6427
▁परियार	-6428
काले	-6429
ड्नु	-6430
▁मतदा	-6431
▁देशले	-6432
▁रुपैयाँमा	-6433
▁विश्वभर	-6434
घन	-6435
▁नगरि	-6436
नेकपा	-6437
▁उत्पादक	-6438
स्थलको	-6439
▁बिरामीको	-6440
▁भोग्	-6441
▁समूहमा	-6442
यामा	-6443
▁ओभरमा	-6444
▁संशोध	-6445
▁उपत्यकामा	-6446
▁२०२	-6447
▁अक्टो	-6448
▁शक्तिको	-6449
बापत	-6450
ानीले	-6451
▁तनहुँ	-6452
र्नुपर्ने	-6453
दुई	-6454
याे	-6455
▁खाएर	-6456
▁सुचना	-6457
नियाँ	-6458
▁अनाव	-6459
▁आप्र	-6460
घात	-6461
म्बार	-6462
हुँदै	-6463
▁लामाले	-6464
ब्दी	-6465
▁बराम	-6466
▁केशव	-6467
▁देखिन्छन्	-6468
▁एक्लै	-6469
▁अन्तरिम	-6470
बमोजिम	-6471
▁शनिवार	-6472
▁७२	-6473
▁अशोक	-6474
▁खोज्न	-6475
५०	-6476
ञ्चित	-6477
▁फ्र	-6478
▁वाइ	-6479
▁मर्या	-6480
जीवी	-6481
▁मालिक	-6482
▁आपसी	-6483
्र्यो	-6484
▁जित्ने	-6485
▁गराइएको	-6486
▁सदा	-6487
▁घिमिरेले	-6488
▁बिस्तृतमा	-6489
ङ्गी	-6490
▁प्रजातान्त्रिक	-6491
▁एकातिर	-6492
▁बलमा	-6493
▁निर्म	-6494
▁बाह्य	-6495
एच	-6496
लस	-6497
ाउँछन्	-6498
▁अभ्या	-6499
▁पर्नेछ	-6500
▁पश्चिमा	-6501
लगत्तै	-6502
▁पाण्डेले	-6503
▁परेर	-6504
▁स्टा	-6505
आवासीय	-6506
▁तिनको	-6507
ढुंगा	-6508
▁निको	-6509
▁तोड	-6510
रहेकी	-6511
▁कपाल	-6512
▁परिसर	-6513
▁सुब्बा	-6514
▁महारा	-6515
▁दीर्घकालीन	-6516
▁चिनी	-6517
▁पारिएको	-6518
▁अस्थ	-6519
▁कक्ष	-6520
▁सोलु	-6521
▁मिल्दैन	-6522
▁आजै	-6523
▁२०१५	-6524
▁तिहारको	-6525
▁समाजवाद	-6526
▁अड्	-6527
▁अस्ट्रेलिया	-6528
▁बालबालिकालाई	-6529
▁श्रृ	-6530
▁नेकपाका	-6531
▁जापानी	-6532
स्तिष्	-6533
▁मौन	-6534
▁विशेषता	-6535
▁गे	-6536
स्कृत	-6537
▁४७	-6538
▁धनुषा	-6539
▁मङ्गल	-6540
▁राजु	-6541
▁सन्तु	-6542
▁the	-6543
्यानल	-6544
▁उपचारको	-6545
ews	-6546
कीय	-6547
▁दैलेख	-6548
ुरि	-6549
▁शंकर	-6550
▁विरोधी	-6551
▁छवि	-6552
▁विक्री	-6553
▁सट्टा	-6554
▁सञ्चारमाध्यम	-6555
▁सन्धि	-6556
▁मुलुकी	-6557
▁अञ्चल	-6558
▁करण	-6559
▁चरम	-6560
▁६४	-6561
▁प्रशासनिक	-6562
▁लगाउ	-6563
ईले	-6564
सक्दा	-6565
ड्ड	-6566
▁नेपालीहरुको	-6567
▁खरेल	-6568
टाम	-6569
▁सुशील	-6570
ण्डमा	-6571
्यारो	-6572
▁स्वदेशी	-6573
▁अर्जेन्टि	-6574
▁बास	-6575
▁महरा	-6576
▁किरात	-6577
▁विनोद	-6578
▁कुँ	-6579
▁अनुप	-6580
▁हजारौं	-6581
▁नेटव	-6582
▁बैत	-6583
▁मनि	-6584
▁वता	-6585
▁संसारमा	-6586
पाटी	-6587
▁विदा	-6588
▁बढाइ	-6589
▁घरबाट	-6590
▁गइरहेको	-6591
▁भाद्र	-6592
▁सागर	-6593
▁बजेदेखि	-6594
▁उल्ल	-6595
▁सुन्त	-6596
▁पाएपछि	-6597
▁गाउँका	-6598
▁निमित्त	-6599
▁बाघ	-6600
▁सिँचाइ	-6601
▁अमेरिकाले	-6602
▁२०३	-6603
▁प्रको	-6604
खास्त	-6605
पुरका	-6606
गण्डकी	-6607
▁महासंघका	-6608
▁रियल	-6609
▁मुना	-6610
▁उज्यालो	-6611
म्बू	-6612
सिस	-6613
▁सतह	-6614
▁जोखिममा	-6615
▁प्रत्या	-6616
पछिको	-6617
▁पारे	-6618
▁कारोवार	-6619
▁बिरुवा	-6620
आज	-6621
द्रिक	-6622
▁अरुण	-6623
▁गर्छौं	-6624
▁सकिन	-6625
सनल	-6626
▁अटो	-6627
▁सिटी	-6628
▁गर्नको	-6629
▁तामाङले	-6630
▁रोजगारीको	-6631
▁२०७१	-6632
▁देख्दा	-6633
काठमा	-6634
किए	-6635
पोखरी	-6636
▁अन्यो	-6637
▁प्राध्यापक	-6638
वाली	-6639
ालयमा	-6640
▁अक्ष	-6641
▁आइपुग्	-6642
▁भएसँगै	-6643
▁सञ्जालमा	-6644
▁बयान	-6645
▁वडामा	-6646
▁सुनुवाइ	-6647
▁चाप	-6648
▁on	-6649
▁फ्या	-6650
▁रुचि	-6651
▁नेताको	-6652
र्भिक	-6653
▁विश्वकपमा	-6654
▁लेख्ने	-6655
▁नपाएको	-6656
▁आयुक्त	-6657
▁बिहानै	-6658
▁मानिने	-6659
▁महँगो	-6660
▁मार्क	-6661
▁यसैबीच	-6662
▁६३	-6663
▁बढ्छ	-6664
▁भलि	-6665
▁खानेकुरा	-6666
▁एकेड	-6667
▁भैरह	-6668
▁बिस्तारै	-6669
▁फरार	-6670
▁पद्धति	-6671
▁१९८	-6672
▁श्रीलंका	-6673
▁फेर	-6674
▁हाफ	-6675
▁शान्त	-6676
▁बिहि	-6677
▁दोहोरो	-6678
▁प्रस्ट	-6679
नुपर्‍यो	-6680
इको	-6681
म्या	-6682
वास्ता	-6683
▁राज्यका	-6684
▁लगेर	-6685
▁पवित्र	-6686
▁धेरैजसो	-6687
र्द्ध	-6688
द्यान्न	-6689
▁अनावश्यक	-6690
▁लण्ड	-6691
▁लगानीको	-6692
▁विपन्न	-6693
क्या	-6694
▁पर्यटकको	-6695
▁हतार	-6696
राष्ट्रपति	-6697
▁हिं	-6698
▁मार्	-6699
▁श्याम	-6700
▁लिइएको	-6701
▁विद्यमान	-6702
▁पन्तको	-6703
समक्ष	-6704
▁सदस्यको	-6705
▁अपरि	-6706
▁ट्रे	-6707
▁व्यवसायिक	-6708
साम	-6709
▁थो	-6710
▁रै	-6711
▁यसपाल	-6712
नीकरण	-6713
▁ज्व	-6714
▁पृथ्वी	-6715
ात्	-6716
▁मार	-6717
▁उल्लेख्य	-6718
▁प्रतिपक्षी	-6719
▁सधै	-6720
▁सदुपयोग	-6721
बाह	-6722
▁कीर्ति	-6723
▁अस्वीकार	-6724
मू	-6725
▁सुरेन्द्र	-6726
▁ढिला	-6727
▁स्वभाव	-6728
▁पढ्नुहोस्	-6729
▁नीतिगत	-6730
▁चामल	-6731
र्सिलो	-6732
▁तस्करी	-6733
▁डिजिटल	-6734
▁विकृति	-6735
▁अस्पतालले	-6736
▁दायर	-6737
स्तरमा	-6738
▁विक्रम	-6739
▁खाद्यान्न	-6740
▁चम्	-6741
▁लियो	-6742
▁विस्थापित	-6743
▁५७	-6744
▁डाँडा	-6745
▁पेट्रोलियम	-6746
ेजी	-6747
याउन	-6748
▁हिस्सा	-6749
बादी	-6750
▁आत्मा	-6751
▁आत्मनिर्भर	-6752
ख्रा	-6753
▁समावेशी	-6754
▁हेटौं	-6755
▁कोरियाली	-6756
▁पार्टीलाई	-6757
▁एसपी	-6758
▁बालबालिकाको	-6759
▁स्याङ्	-6760
▁भन	-6761
लभ	-6762
▁फराकिलो	-6763
ण्ठ	-6764
प्लव	-6765
▁एसो	-6766
▁रेग्मी	-6767
▁सरसफाइ	-6768
▁हुनेमा	-6769
▁गैरआवासीय	-6770
▁आउट	-6771
प्रदान	-6772
▁देखिँदैन	-6773
▁क्षतिपूर्ति	-6774
▁खरीद	-6775
▁गफ	-6776
▁कता	-6777
▁बुझ्ने	-6778
▁राजतन्त्र	-6779
िनको	-6780
▁गहिरो	-6781
ेषण	-6782
▁विपरीत	-6783
▁परिवेश	-6784
रालो	-6785
▁प्रतिवद्धता	-6786
सेन्स	-6787
▁स्याउ	-6788
साल	-6789
द्धारा	-6790
लीले	-6791
▁राजश्व	-6792
▁बार्सिलो	-6793
▁वु	-6794
▁हप्	-6795
▁ढिलो	-6796
▁सम्झना	-6797
▁सफ्ट	-6798
गान	-6799
लाउने	-6800
ot	-6801
वर्ग	-6802
▁रेमिट	-6803
▁जोगाउन	-6804
▁बरामद	-6805
न्यजन्तु	-6806
▁भ्रमणको	-6807
▁लघुव	-6808
▁सुदृ	-6809
▁यिनै	-6810
▁तपाईले	-6811
त्रि	-6812
▁श्रा	-6813
तिय	-6814
▁ठग	-6815
▁वाल	-6816
▁मिलन	-6817
▁जिज्ञा	-6818
▁सिं	-6819
▁बौद्धिक	-6820
▁योजनामा	-6821
▁दैनिकमा	-6822
जरको	-6823
▁नोभे	-6824
▁अभियुक्त	-6825
▁परिवर्तनको	-6826
▁खै	-6827
▁शिविर	-6828
▁गरिबी	-6829
▁विभाजन	-6830
▁ब्लग	-6831
ठू	-6832
▁माग्	-6833
सिङ	-6834
▁सन्दी	-6835
▁पैदा	-6836
▁शैलीमा	-6837
▁अनिल	-6838
ल्नु	-6839
आउ	-6840
चौर	-6841
्रिड	-6842
लय	-6843
▁मनोन	-6844
▁लक्षण	-6845
▁राष्ट्रियसभा	-6846
टीको	-6847
▁ताली	-6848
▁शौच	-6849
▁बेनी	-6850
▁भाषाको	-6851
▁संस्कृतिको	-6852
दिनु	-6853
▁राह	-6854
तीले	-6855
▁औषधी	-6856
धाम	-6857
्छु	-6858
▁फिट	-6859
▁नर्स	-6860
▁सारा	-6861
ञ्चार	-6862
▁बोर्डले	-6863
▁विस्तारै	-6864
▁बेस	-6865
▁हत्य	-6866
▁२०१४	-6867
▁सिलसि	-6868
ख्	-6869
▁तीनै	-6870
▁पञ्चायत	-6871
▁उका	-6872
▁बन्छ	-6873
▁पुगेपछि	-6874
▁दिमा	-6875
▁काभ्र	-6876
▁भूमिकामा	-6877
▁महाकाली	-6878
▁लोभ	-6879
▁मृ	-6880
▁तस्वीर	-6881
▁बजेटमा	-6882
▁O	-6883
च्छुक	-6884
▁रौतह	-6885
मिता	-6886
▁घाँ	-6887
न्दर्य	-6888
संरचना	-6889
▁पक्षको	-6890
▁केजी	-6891
▁मानिसहरू	-6892
भाग्य	-6893
▁निगर	-6894
▁डाइ	-6895
▁कन्ट	-6896
▁नराख	-6897
▁राजेश	-6898
▁पर्यो	-6899
▁अस्थिर	-6900
ँगा	-6901
▁उपन्यास	-6902
पेर	-6903
▁मान्न	-6904
जल	-6905
त्रु	-6906
▁शल्य	-6907
▁सर्वेक्षण	-6908
▁होटलमा	-6909
ङ्का	-6910
धारी	-6911
▁परिवारमा	-6912
▁राय	-6913
▁उपचारमा	-6914
▁हेम	-6915
▁अन्र्त	-6916
रेड	-6917
▁पुनले	-6918
ड्रो	-6919
▁ग्लो	-6920
▁चाहे	-6921
रोग	-6922
▁सिरहा	-6923
लिपि	-6924
▁खोल्न	-6925
▁छाला	-6926
▁लुगा	-6927
▁गोप्य	-6928
▁लगायतको	-6929
▁रोजगारीका	-6930
▁E	-6931
्रास	-6932
▁ख्याल	-6933
▁फुल	-6934
▁समुदायले	-6935
कारको	-6936
▁एजेन्	-6937
औष	-6938
▁डल	-6939
▁६२	-6940
सत्ता	-6941
▁सम्हाल	-6942
नेपाली	-6943
▁गराएर	-6944
▁तुला	-6945
▁मस्तिष्	-6946
▁सोझ	-6947
▁बोनस	-6948
▁लापर	-6949
▁गौरव	-6950
सिएको	-6951
▁कागज	-6952
▁जापानमा	-6953
▁निगमले	-6954
▁आमाले	-6955
▁बिन्दु	-6956
em	-6957
▁रहस्य	-6958
▁प्रेरणा	-6959
▁राइ	-6960
▁हुनै	-6961
▁कार्ययोजना	-6962
▁सेक्स	-6963
▁सङ्गठन	-6964
▁सरकारबाट	-6965
▁फैलिएको	-6966
▁विभागको	-6967
पावर	-6968
▁आक्रोश	-6969
जेल	-6970
लियो	-6971
०००	-6972
▁धनकु	-6973
▁ओटा	-6974
जुमा	-6975
▁छायांकन	-6976
▁in	-6977
▁संसद्मा	-6978
▁रङ्ग	-6979
▁प्रशासनले	-6980
▁जनआ	-6981
लवस्तु	-6982
▁पक्का	-6983
▁G	-6984
▁आचार	-6985
▁बढुवा	-6986
कान	-6987
परित	-6988
▁भाई	-6989
▁ढुवानी	-6990
▁बारम्बार	-6991
▁५९	-6992
▁कुराले	-6993
▁वैकल्पिक	-6994
ब्लिक	-6995
▁गठित	-6996
▁ट्रेड	-6997
ाधीन	-6998
न्तिक	-6999
चको	-7000
▁एजे	-7001
▁हुदैन	-7002
▁संयोजन	-7003
▁पोखराको	-7004
▁निरी	-7005
▁प्रदर्शनमा	-7006
▁बाबा	-7007
▁L	-7008
▁पथ	-7009
्नुपर्ने	-7010
▁चुनौ	-7011
▁आपत्ति	-7012
▁निषेध	-7013
▁स्तरीय	-7014
▁नदिन	-7015
▁माइक्रो	-7016
▁मार्च	-7017
▁कामलाई	-7018
▁मुलुकलाई	-7019
▁संघसंस्था	-7020
▁राईको	-7021
▁ठोस	-7022
▁सानै	-7023
स्टा	-7024
▁जाडो	-7025
▁निगरानी	-7026
▁सार्वभौ	-7027
▁लगाई	-7028
▁आन्दोलनका	-7029
▁कार्यद	-7030
▁आयोजकले	-7031
▁सहयोगको	-7032
▁मनोज	-7033
▁पर्‍यो	-7034
▁हत्यारा	-7035
▁बिल	-7036
▁सकियो	-7037
▁अलपत्र	-7038
▁त्यहि	-7039
▁केटी	-7040
ol	-7041
▁नेत्र	-7042
▁बिद्या	-7043
▁माला	-7044
▁सुनाए	-7045
भावना	-7046
▁इर	-7047
▁लेखन	-7048
▁खोल्ने	-7049
्यार	-7050
▁खोलामा	-7051
नासाथ	-7052
▁जुलाई	-7053
▁लन्ड	-7054
▁सिस्ट	-7055
सीसी	-7056
▁नवलपरासी	-7057
▁कार्यक्रमहरु	-7058
▁समुदायमा	-7059
▁मात	-7060
लेपछि	-7061
▁पाइप	-7062
▁प्रयोगमा	-7063
निज	-7064
नियर	-7065
▁नमिल्	-7066
▁भएकोमा	-7067
ेरिया	-7068
▁रूपा	-7069
▁बस्नु	-7070
▁बेलुका	-7071
१६	-7072
▁इमा	-7073
▁इला	-7074
▁संकल	-7075
▁सार्क	-7076
▁अध्यक्षमा	-7077
▁बुँदे	-7078
▁बुझाएको	-7079
▁क्रोएसिया	-7080
▁आफनो	-7081
▁अग्रसर	-7082
▁अधिकतम	-7083
▁दिँदा	-7084
▁हकप्रद	-7085
▁रोजगारीमा	-7086
डाँडा	-7087
▁सकिँदैन	-7088
ww	-7089
▁गर्मी	-7090
▁जुम्ला	-7091
▁हलमा	-7092
▁रोपनी	-7093
म्वर	-7094
बन	-7095
▁ल्	-7096
▁शिक्षामा	-7097
साना	-7098
▁आउँदो	-7099
▁दुध	-7100
▁ढुंगा	-7101
▁हटाउने	-7102
▁कृष्णप्रसाद	-7103
▁कुव	-7104
▁स्वीका	-7105
▁भुमिका	-7106
दियो	-7107
▁मुल्य	-7108
▁प्रस्तावित	-7109
▁लिम्बू	-7110
▁बनायो	-7111
केन्द्र	-7112
टिस	-7113
त्रो	-7114
▁सिंगा	-7115
▁परेपछि	-7116
▁तहले	-7117
▁पाउँदा	-7118
▁राजकुमार	-7119
▁चिन	-7120
▁शताब्दी	-7121
▁मूल्यांकन	-7122
सह	-7123
▁वीरगञ्ज	-7124
▁हँु	-7125
▁तिर्न	-7126
▁नामको	-7127
▁माल्	-7128
ch	-7129
▁समापन	-7130
▁लेखनाथ	-7131
▁मरि	-7132
▁गर्नुहुन्छ	-7133
जनी	-7134
ाउँमा	-7135
अर्का	-7136
▁नमू	-7137
▁गर्भव	-7138
▁कम्तिमा	-7139
▁पिता	-7140
▁चैत्र	-7141
▁रेलमार्ग	-7142
▁९५	-7143
चाप	-7144
ारको	-7145
▁सौन्दर्य	-7146
▁कम्पनीलाई	-7147
▁अन्त्यमा	-7148
स्फोट	-7149
▁खसेको	-7150
ाको	-7151
▁शहरमा	-7152
▁फला	-7153
राज्य	-7154
▁काला	-7155
▁खाल्	-7156
▁थिइन	-7157
▁राशि	-7158
▁व्रत	-7159
▁बस्तु	-7160
▁बेरोज	-7161
▁राम्ररी	-7162
▁ग्रुप	-7163
▁देखाएर	-7164
▁सबभन्दा	-7165
▁अनुसारको	-7166
मोड	-7167
▁बल्	-7168
▁ली	-7169
▁आफ्	-7170
▁मिलेको	-7171
▁निम्त्या	-7172
▁७४	-7173
ड्दा	-7174
▁n	-7175
▁टिमले	-7176
▁अखिल	-7177
▁आरोहण	-7178
सेवी	-7179
▁पेन	-7180
▁धम्की	-7181
▁लगाउनु	-7182
▁विरोधमा	-7183
▁समि	-7184
लेले	-7185
▁दलहरू	-7186
▁व्यहो	-7187
मैले	-7188
रोप	-7189
▁पार्क	-7190
▁नज	-7191
▁आफैंले	-7192
▁२०७०	-7193
▁निकायमा	-7194
▁बिश्व	-7195
▁सुदूरपश्चिम	-7196
र्देशक	-7197
▁छात्रा	-7198
▁मिलाएर	-7199
▁मान्छेको	-7200
▁नदीको	-7201
▁चलाएको	-7202
छिन	-7203
न्डर	-7204
▁५००	-7205
▁गराउँदै	-7206
▁मन्तव्य	-7207
▁निकालेको	-7208
▁मकै	-7209
इमा	-7210
ज्ज	-7211
▁झन	-7212
लान्	-7213
▁चरा	-7214
▁मैन	-7215
▁आउँदै	-7216
▁वन्यजन्तु	-7217
वटै	-7218
▁रुच	-7219
▁विष्टले	-7220
▁परिचयपत्र	-7221
छौं	-7222
ेनन्	-7223
▁हुन्थे	-7224
▁नेपालमै	-7225
वेयर	-7226
▁ऋषि	-7227
▁महीना	-7228
▁भन्नुहुन्छ	-7229
सुर	-7230
▁स्थितिमा	-7231
▁आया	-7232
▁बेलायती	-7233
▁प्रादेशिक	-7234
▁उनकी	-7235
ुटि	-7236
▁उर्	-7237
▁गोष्ठ	-7238
▁पोर्चु	-7239
▁मुस्लिम	-7240
जीले	-7241
▁जनमत	-7242
हुनेछ	-7243
▁भनेपछि	-7244
ड्य	-7245
▁भैरहवा	-7246
▁शरणा	-7247
▁रूपले	-7248
▁६६	-7249
जारी	-7250
वारण	-7251
▁छापा	-7252
▁दीपा	-7253
▁कँ	-7254
▁शिक्ष	-7255
▁एक्का	-7256
▁दवा	-7257
▁जर्मनी	-7258
▁सक्दैनन्	-7259
▁प्रतिस्पर्धी	-7260
▁बैंकमा	-7261
▁सरस्व	-7262
▁शरीरको	-7263
औषध	-7264
▁of	-7265
▁अभिवृद्धि	-7266
हरि	-7267
▁दिप	-7268
चाई	-7269
काठमाड	-7270
ेटिङ	-7271
मशेर	-7272
▁आलु	-7273
▁द्वि	-7274
▁शुक्ल	-7275
▁ट्रान्स	-7276
▁निर्देशिका	-7277
▁प्राधिकरणका	-7278
▁नेप्से	-7279
▁उम्मे	-7280
▁सम्बन्धलाई	-7281
▁राजन	-7282
▁ओखल	-7283
▁बल्ल	-7284
भित्रका	-7285
▁डिसे	-7286
▁उत्पादित	-7287
▁धितोपत्र	-7288
▁आति	-7289
▁आवद्ध	-7290
▁फर्म	-7291
जम	-7292
ब्बर	-7293
▁ब्यक्त	-7294
▁कार्यसमिति	-7295
कवि	-7296
▁रुपले	-7297
▁दाउ	-7298
ामन्त्री	-7299
चरण	-7300
रहेछ	-7301
▁अङ्क	-7302
▁रोक्	-7303
▁कम्पनीमा	-7304
ेश्रो	-7305
▁कुटपिट	-7306
▁खेल्दै	-7307
▁सेमिफाइनलमा	-7308
हिन	-7309
▁कथ	-7310
बाटो	-7311
▁निकास	-7312
▁अभिलेख	-7313
▁साइकल	-7314
▁पुर्‍याउने	-7315
दित	-7316
▁वसन्त	-7317
▁मिलाउन	-7318
तारी	-7319
▁न्यायिक	-7320
ञ्जा	-7321
▁मध्यम	-7322
▁बडा	-7323
▁उठेको	-7324
▁रेष्ट	-7325
त्सव	-7326
▁राम्रोसँग	-7327
▁अनुसन्धानमा	-7328
▁घोषित	-7329
▁बत्ती	-7330
▁असन्तुष्ट	-7331
▁छिन	-7332
▁साई	-7333
▁नियमन	-7334
▁पेन्	-7335
उनुपर्छ	-7336
▁६८	-7337
टले	-7338
वरको	-7339
▁होस	-7340
▁म्याने	-7341
ोने	-7342
धाई	-7343
▁अनुमो	-7344
▁सांगी	-7345
णु	-7346
अर	-7347
▁उनकै	-7348
▁रामे	-7349
▁कुखुरा	-7350
▁उत्साहित	-7351
ंै	-7352
▁गर्नुको	-7353
▁नभएकाले	-7354
▁तट	-7355
▁भित्री	-7356
बुल	-7357
लाही	-7358
▁अपाङ्ग	-7359
▁तालमेल	-7360
▁गैरसरकारी	-7361
▁जोडिएका	-7362
▁चिर	-7363
▁बीउ	-7364
अध्यक्ष	-7365
▁शिवि	-7366
▁बाढीले	-7367
▁नत्र	-7368
▁नेताहरूले	-7369
▁आखिर	-7370
▁शल्यक्रिया	-7371
सय	-7372
▁नदेख	-7373
▁दलहरु	-7374
▁सकिन्न	-7375
▁भईरहेको	-7376
▁खोटाङ	-7377
▁पत्रमा	-7378
▁पुरानै	-7379
▁बचाउन	-7380
▁हेलिक	-7381
▁महानिरीक्षक	-7382
टारमा	-7383
▁नभएपछि	-7384
▁दौड	-7385
▁रसिया	-7386
▁उनै	-7387
▁ठक्कर	-7388
▁प्रदू	-7389
▁प्रतिफल	-7390
▁ब्ल	-7391
ालीले	-7392
▁बराबरी	-7393
▁पक्षलाई	-7394
द्धान्तिक	-7395
▁परिमार्जन	-7396
रोज	-7397
▁तौल	-7398
▁रुट	-7399
▁तिवारी	-7400
▁कूटनीतिक	-7401
बिया	-7402
▁तिनका	-7403
्नुपर्छ	-7404
▁तेश्रो	-7405
▁७६	-7406
▁देखेको	-7407
▁जलविद्युत	-7408
▁गाइ	-7409
▁उत्सव	-7410
▁महिलाहरु	-7411
▁आराम	-7412
▁गर्नुका	-7413
▁योग्यता	-7414
रहन्छ	-7415
▁इस्	-7416
▁ज्य	-7417
ation	-7418
▁जोशीले	-7419
▁प्रकोप	-7420
▁झर	-7421
▁स्रोतका	-7422
▁घरमै	-7423
▁रहँदै	-7424
▁हुम्	-7425
न्दार	-7426
▁मौद्रिक	-7427
▁सांगीतिक	-7428
वले	-7429
उनुभयो	-7430
▁धू	-7431
▁मेहन	-7432
▁जोडेर	-7433
▁बढ्नु	-7434
▁खोज्दै	-7435
▁चितवनको	-7436
ay	-7437
२५	-7438
▁रहेकी	-7439
▁जितेका	-7440
▁प्रसंग	-7441
▁ज्ञवाल	-7442
तर्फको	-7443
▁माओवादीको	-7444
▁नसक	-7445
▁दृष्टिले	-7446
▁अर्याल	-7447
▁अलिकति	-7448
▁क्यामे	-7449
▁प्रश्नको	-7450
▁भेटवार्ता	-7451
▁तमु	-7452
▁हनु	-7453
द्र्ध	-7454
नालाई	-7455
▁घरपरिवार	-7456
▁बजेटको	-7457
▁मूर्ति	-7458
मुक्ति	-7459
▁बाख्रा	-7460
चण्ड	-7461
▁व्यवसायमा	-7462
▁भय	-7463
▁पैदल	-7464
▁मिले	-7465
स्त्री	-7466
▁मोदीले	-7467
दलीय	-7468
▁संविधानसभाको	-7469
▁कष्ट	-7470
ँकी	-7471
▁लिटर	-7472
▁सभ्य	-7473
▁कागजात	-7474
गाह	-7475
न्च	-7476
▁भुटान	-7477
▁कुमारी	-7478
▁पठाइएको	-7479
▁किनकी	-7480
लम्प	-7481
▁गेट	-7482
▁प्रदर्शनी	-7483
▁तर्जुमा	-7484
▁मान्छेले	-7485
प्ती	-7486
▁विश्वव्यापी	-7487
प्न	-7488
▁जानकार	-7489
▁डोल्पा	-7490
▁पदार्थको	-7491
▁प्रणालीको	-7492
र्कि	-7493
▁इजला	-7494
▁कोट	-7495
▁भूकम्पले	-7496
▁खोज्दा	-7497
ir	-7498
▁धो	-7499
थोकी	-7500
▁घुम्न	-7501
▁समस्यामा	-7502
▁अना	-7503
▁पुर्याउने	-7504
▁वरिपरि	-7505
▁अधिवेशन	-7506
▁एमाओवादी	-7507
▁मनोरञ्जन	-7508
▁खानु	-7509
▁निवारण	-7510
▁गरेँ	-7511
▁टुंग	-7512
▁साधारणसभा	-7513
▁७३	-7514
▁७७	-7515
▁गणना	-7516
▁दरबन्दी	-7517
ारुढ	-7518
▁लाखको	-7519
▁वैद्य	-7520
ंकी	-7521
ओस्	-7522
▁हस्	-7523
us	-7524
अस	-7525
न्जेल	-7526
▁इन्धन	-7527
▁फार्म	-7528
▁हैसियत	-7529
▁रही	-7530
▁गोदा	-7531
▁मतगणना	-7532
▁सत्तामा	-7533
▁विद्यादेवी	-7534
जका	-7535
भेट	-7536
लेन्स	-7537
▁उसका	-7538
तवार	-7539
▁खपत	-7540
▁रामेछा	-7541
▁अवकाश	-7542
▁स्थाय	-7543
▁सञ्चारकर्मी	-7544
▁उड्ड	-7545
कालिन	-7546
▁झण्डा	-7547
▁सुवेदीले	-7548
▁पुजा	-7549
▁आश्वास	-7550
▁दिनअघि	-7551
▁निकाल्न	-7552
▁कार्यलाई	-7553
▁काफ	-7554
▁असा	-7555
▁ठाँ	-7556
▁क्षेत्री	-7557
ठ्	-7558
दिभ्	-7559
▁ओलीलाई	-7560
▁ओभर	-7561
▁पछी	-7562
▁बाक्	-7563
▁अध्ययनरत	-7564
▁घुस	-7565
▁राजनीतिको	-7566
▁बुढ	-7567
▁चिना	-7568
▁सम्पादक	-7569
▁स्पे	-7570
▁सैद्धान्तिक	-7571
हुने	-7572
▁कुर्	-7573
▁किस्ता	-7574
▁कामदारको	-7575
▁उमा	-7576
▁इटहरी	-7577
▁खत्री	-7578
▁गरेपनि	-7579
▁तीनवटा	-7580
▁धनकुटा	-7581
▁पुस्तकाल	-7582
▁बाधा	-7583
▁मिल्छ	-7584
सामु	-7585
▁अस्व	-7586
▁राजनि	-7587
▁होईन	-7588
▁मार्ने	-7589
पञ्च	-7590
▁मर	-7591
मूल्य	-7592
▁बाँडफा	-7593
ंच	-7594
ारू	-7595
▁गर्दछु	-7596
▁जुवा	-7597
▁नमूना	-7598
▁नहुनु	-7599
▁सेप्टेम्बर	-7600
▁पुरै	-7601
▁बताउनुहुन्छ	-7602
रहनु	-7603
▁झैं	-7604
ष्कार	-7605
▁प्रियंका	-7606
▁3	-7607
बिधान	-7608
▁स्रोतको	-7609
▁निर्भर	-7610
▁खतिवडाले	-7611
▁गर्भवती	-7612
▁प्रचारप्रसार	-7613
▁व्यवस्थापनमा	-7614
राजा	-7615
▁डाउन	-7616
▁दिपक	-7617
टरमा	-7618
▁नन्द	-7619
▁पन्छ	-7620
षक	-7621
▁जेष्ठ	-7622
▁सत्तारुढ	-7623
्योर	-7624
▁जनाउँदै	-7625
वहारिक	-7626
▁रुपान्तरण	-7627
▁हरियो	-7628
सनमा	-7629
▁औषध	-7630
▁विशेषगरी	-7631
▁ईश्वर	-7632
▁सर्लाही	-7633
▁पावर	-7634
▁जापानको	-7635
▁सकेसम्म	-7636
▁राजधानीको	-7637
वु	-7638
ुप्र	-7639
स्टिक	-7640
▁स्तरो	-7641
▁वान	-7642
विराज	-7643
▁बीचको	-7644
▁अभियोगमा	-7645
१४	-7646
िकृत	-7647
▁क्लि	-7648
▁फोहर	-7649
वश्यक	-7650
▁स्वि	-7651
▁ठगी	-7652
▁तीर्थ	-7653
sp	-7654
▁हाइड्रो	-7655
▁स्टक	-7656
▁ताप्ले	-7657
▁सहजै	-7658
▁पोखरी	-7659
▁उत्पादनको	-7660
गै	-7661
▁नवराज	-7662
▁उच्चस्तरीय	-7663
भिर	-7664
र्सा	-7665
▁महेश	-7666
▁दिनका	-7667
▁शान्तिपूर्ण	-7668
▁आश्च	-7669
▁सुरुङ	-7670
▁गह	-7671
▁सदस्यमा	-7672
▁धमा	-7673
▁लोडसे	-7674
ाल्ने	-7675
▁शर्त	-7676
▁कार्यान्वयनका	-7677
▁तेज	-7678
▁अर्कै	-7679
▁स्क्र	-7680
ग्लै	-7681
▁व्यवहारमा	-7682
▁अछ	-7683
▁अङ्ग	-7684
▁पेसा	-7685
▁रिहा	-7686
▁निश	-7687
▁बोट	-7688
▁पोलि	-7689
बिना	-7690
▁प्रचलित	-7691
सुन	-7692
▁बर्दिया	-7693
▁भैसकेको	-7694
▁संस्थालाई	-7695
खी	-7696
▁शरि	-7697
▁शेख	-7698
▁सवार	-7699
▁लोकतन्त्रको	-7700
▁सुरक्षाकर्मी	-7701
जिन	-7702
▁देखाइ	-7703
▁भूभाग	-7704
▁लाग्नु	-7705
▁कमाएको	-7706
▁शौचालय	-7707
सम्प	-7708
▁लाखौं	-7709
▁स्थानीयवासी	-7710
▁केर	-7711
▁कालोपत्र	-7712
▁आयोजनाले	-7713
▁अनुगम	-7714
▁पहलमा	-7715
▁करोडको	-7716
भावी	-7717
▁फुटबलको	-7718
▁सिलसिलामा	-7719
▁विश्वकपको	-7720
▁भोली	-7721
▁असु	-7722
▁सुत्के	-7723
▁पढाई	-7724
पाइ	-7725
▁ब्रो	-7726
▁उद्योगी	-7727
▁मकवानपुर	-7728
▁अन्यत्र	-7729
▁मोदीको	-7730
देन	-7731
▁कार्यान्वयनको	-7732
मेरो	-7733
मध्य	-7734
▁गुरुङको	-7735
▁प्रज्ञा	-7736
ञ्जु	-7737
▁औसत	-7738
▁ठूल	-7739
▁भेष	-7740
बाहिर	-7741
▁न्यूनीकरण	-7742
िकन	-7743
टनको	-7744
शिया	-7745
▁यात	-7746
▁संज	-7747
▁धादिङ	-7748
▁अवश्य	-7749
▁तिनले	-7750
▁थालनी	-7751
▁काँग्रेसले	-7752
▁खाइ	-7753
▁बन्ध	-7754
▁ओलम्प	-7755
▁त्यहाँबाट	-7756
▁दण्ड	-7757
बारेमा	-7758
ेजमा	-7759
▁चम	-7760
श्मा	-7761
▁कमला	-7762
▁छानविन	-7763
▁टेक्	-7764
महि	-7765
▁प्यारा	-7766
▁संसदको	-7767
▁गम्	-7768
▁स्र	-7769
▁महासङ्घ	-7770
▁विश्वकै	-7771
▁बन्नु	-7772
सीय	-7773
▁भट्टले	-7774
▁नेतृत्वले	-7775
▁सुरू	-7776
▁फाई	-7777
▁६१	-7778
ुर्ण	-7779
माथिको	-7780
▁रोक्ने	-7781
▁सुन्दा	-7782
▁९९	-7783
▁प्राधिकरणको	-7784
▁संवत्	-7785
▁कपिलवस्तु	-7786
▁८८	-7787
▁फर्कने	-7788
▁बाहिरी	-7789
▁साइट	-7790
▁Nepal	-7791
▁हाराहारीमा	-7792
▁बिगत	-7793
▁सुरेश	-7794
▁उड्डयन	-7795
▁संगठित	-7796
▁लगाउँदै	-7797
▁सदस्यले	-7798
▁राजविराज	-7799
▁K	-7800
▁प्रभा	-7801
▁जाजरको	-7802
▁अप्ठ्यारो	-7803
▁पोल	-7804
▁अर्काे	-7805
रन	-7806
▁सिजन	-7807
▁मुलुकले	-7808
▁गर्नेलाई	-7809
▁हेक्टर	-7810
तेको	-7811
वासीले	-7812
▁ढिलाइ	-7813
ब्या	-7814
▁विषा	-7815
ङ्गे	-7816
▁सहुल	-7817
▁अर्थमा	-7818
तेर	-7819
नान्स	-7820
▁करको	-7821
▁रोचक	-7822
▁साँच्चै	-7823
▁अपर	-7824
▁उदेश्य	-7825
डोर	-7826
▁खुद	-7827
▁जीत	-7828
▁बधाई	-7829
▁बेवास्ता	-7830
▁नेवार	-7831
ठूला	-7832
▁संचालनमा	-7833
▁स्तरोन्न	-7834
▁भाग्य	-7835
▁बुझाउन	-7836
▁लक्ष्मण	-7837
धनी	-7838
▁अर्ध	-7839
▁दलाल	-7840
▁नसक्नु	-7841
▁बेल्जियम	-7842
▁सीता	-7843
▁ट्रेल	-7844
▁गोर्ख	-7845
▁धर्मा	-7846
▁ठाउ	-7847
▁सुधारका	-7848
७०	-7849
एनए	-7850
▁डिल्ली	-7851
▁अर्यालले	-7852
▁खातामा	-7853
▁नसकेका	-7854
▁विषयको	-7855
चानक	-7856
नाइटेड	-7857
▁जैविक	-7858
▁विगतका	-7859
मोहन	-7860
▁सर्त	-7861
▁ज्येष्ठ	-7862
दर्शन	-7863
▁खेलाडीले	-7864
▁हुनुको	-7865
▁फौज	-7866
▁आर्य	-7867
▁झापाको	-7868
▁छेउ	-7869
ङ्ख	-7870
नाल्ड	-7871
ुकम्प	-7872
▁पर्वको	-7873
▁शीत	-7874
▁सता	-7875
▁मेरी	-7876
▁नक्सा	-7877
▁जनआन्दोल	-7878
ारोपण	-7879
▁लाइसेन्स	-7880
्रैमा	-7881
▁बसन्त	-7882
प्रचण्ड	-7883
▁दिशामा	-7884
▁प्रेमी	-7885
▁आश्चर्य	-7886
▁गच्छ	-7887
▁मेलम्	-7888
▁कारागार	-7889
▁संगठनको	-7890
आउट	-7891
▁फेसबुकमा	-7892
▁बुढाथोकी	-7893
▁पठन	-7894
▁हिरो	-7895
द्वय	-7896
▁तापनि	-7897
किम	-7898
▁माक्	-7899
▁महानिर्देशक	-7900
▁भेद	-7901
▁अनुवाद	-7902
▁प्रस्थान	-7903
ेन्टमा	-7904
▁रक्सी	-7905
▁सहकार्यमा	-7906
▁अग्लो	-7907
पादन	-7908
▁सल्यान	-7909
▁उहा	-7910
▁जमी	-7911
▁सम्मेलनको	-7912
▁८४	-7913
▁जवान	-7914
▁कार्यपालिकाको	-7915
▁आउँछन्	-7916
पल	-7917
पुल	-7918
▁आपू	-7919
▁धुलो	-7920
▁कानुनको	-7921
▁स्थायित्व	-7922
▁७८	-7923
▁दमक	-7924
▁सलमान	-7925
▁एड	-7926
▁चुर	-7927
▁नाग	-7928
▁विप्लव	-7929
नयाँ	-7930
▁खानी	-7931
कस्मिक	-7932
▁नदिएको	-7933
ुस	-7934
वाङ	-7935
▁ध्रु	-7936
▁पानीमा	-7937
▁सुरक्षाका	-7938
▁रिट	-7939
▁एजेण्डा	-7940
▁छात्रवृत्ति	-7941
▁यसैले	-7942
▁प्राचीन	-7943
▁उभ	-7944
स्ले	-7945
▁गतेको	-7946
▁वीरगन्ज	-7947
▁यि	-7948
▁शोषण	-7949
▁अनौठो	-7950
▁डरा	-7951
संहिता	-7952
▁समक्ष	-7953
▁बनाउँदा	-7954
▁आयोजनाका	-7955
▁सवारीसाधन	-7956
▁नदेखि	-7957
▁बिरोध	-7958
▁मातहत	-7959
▁निर्देशनमा	-7960
डल	-7961
▁पालन	-7962
▁अचानक	-7963
▁भनिने	-7964
▁लगायतले	-7965
▁समाजलाई	-7966
न्दो	-7967
▁उद्यमी	-7968
ँै	-7969
वाको	-7970
काण्ड	-7971
▁ट्वी	-7972
▁।...	-7973
▁चीनमा	-7974
▁गर्छन	-7975
▁बिद्यालय	-7976
▁शृ	-7977
स्टार	-7978
▁खुलासा	-7979
▁स्वरूप	-7980
बको	-7981
िकै	-7982
▁नच	-7983
▁मुद्धा	-7984
▁सङ्घर्ष	-7985
स्मा	-7986
▁वाग्	-7987
▁शिकार	-7988
ताल	-7989
▁६७	-7990
▁जथा	-7991
विज्ञान	-7992
▁खट	-7993
▁डोनाल्ड	-7994
▁गइ	-7995
▁९८	-7996
--	-7997
▁कमाउने	-7998
▁बेहो	-7999
▁सरसफाई	-8000
▁परिक्षण	-8001
▁संस्कृत	-8002
▁मन्त्रिपरिषद	-8003
▁दुब	-8004
स्रोत	-8005
▁पुर्ण	-8006
▁बढा	-8007
▁राखिएका	-8008
▁दिनभित्र	-8009
जीकरण	-8010
▁सम्पुर्ण	-8011
▁सत्र	-8012
▁जग्गामा	-8013
कानु	-8014
▁शाहीले	-8015
बाजी	-8016
▁सयौं	-8017
▁हास्य	-8018
▁छोरीको	-8019
▁हामीसँग	-8020
गाई	-8021
तपा	-8022
१७	-8023
▁अन्तरगत	-8024
▁बिम	-8025
▁नवीन	-8026
▁भएँ	-8027
वधि	-8028
िङ	-8029
ंदैन	-8030
शरण	-8031
▁आफ्नी	-8032
▁संबिधान	-8033
दले	-8034
सम्पर्क	-8035
▁सञ्चालनका	-8036
▁औचित	-8037
▁काटि	-8038
सिएसन	-8039
▁रजि	-8040
▁दार्चु	-8041
तापूर्वक	-8042
▁नेटवर्क	-8043
ost	-8044
▁मुम्ब	-8045
▁खेलाडीको	-8046
▁विज्ञप्ति	-8047
im	-8048
▁२००७	-8049
▁निश्च	-8050
▁यज्ञ	-8051
▁कठि	-8052
▁चल्न	-8053
▁केदार	-8054
▁थाइल्याण्ड	-8055
न्डा	-8056
▁सामेल	-8057
▁सुने	-8058
▁लाग्थ्यो	-8059
▁विमानस्थलको	-8060
▁नेपालकै	-8061
▁महिनादेखि	-8062
id	-8063
▁ट्रया	-8064
स्वरुप	-8065
न्दैन	-8066
▁सक्नेछन्	-8067
▁पश्चिमी	-8068
▁h	-8069
गामी	-8070
प्स	-8071
▁पर्नेमा	-8072
ताप	-8073
▁एभर	-8074
▁साधनको	-8075
▁गरेकोमा	-8076
▁माइती	-8077
वाहक	-8078
▁भाडामा	-8079
▁तत्कालै	-8080
▁जसो	-8081
▁प्रयोजन	-8082
▁कार्यको	-8083
▁पुरुषको	-8084
▁लुक	-8085
सतमा	-8086
▁तपाईलाई	-8087
▁शर	-8088
▁सार्थ	-8089
▁रेस्ट	-8090
▁हराउँदै	-8091
▁नेपालीहरु	-8092
ंगे	-8093
▁ठुला	-8094
▁मधुमे	-8095
क्रान्ति	-8096
मगर	-8097
▁पायो	-8098
▁महान्	-8099
▁जित्	-8100
▁त्रैमा	-8101
▁आकस्मिक	-8102
सबै	-8103
▁परीक्षामा	-8104
▁जनचेत	-8105
▁उपयोगी	-8106
▁गरिनु	-8107
▁समर्थक	-8108
▁सम्प्र	-8109
▁बृद्ध	-8110
▁बरिष्ठ	-8111
▁अनुमोदन	-8112
▁चुनावको	-8113
झैं	-8114
▁नोक्स	-8115
▁प्रथा	-8116
▁बिहिबार	-8117
▁लिमिटेडले	-8118
▁मच्च	-8119
,'	-8120
स्प	-8121
लिने	-8122
▁and	-8123
▁कारखाना	-8124
बीचमा	-8125
▁पसलमा	-8126
पिटल	-8127
▁बसाइ	-8128
ष्टिक	-8129
▁पाइँदैन	-8130
▁विवादमा	-8131
▁उद्योगमा	-8132
▁वामपन्थी	-8133
न्दि	-8134
▁वेद	-8135
▁भलिबल	-8136
▁आयोगमा	-8137
▁मन्दिरको	-8138
▁उही	-8139
▁तालिका	-8140
▁त्रिवि	-8141
▁जग्गाको	-8142
▁पुरस्कृत	-8143
▁आयल	-8144
स्पति	-8145
▁हालको	-8146
▁तिमीलाई	-8147
▁विस्फोट	-8148
▁तरल	-8149
▁असुर	-8150
र्वेद	-8151
▁ग्लोबल	-8152
▁सम्ममा	-8153
▁जनस्वास्थ्य	-8154
रहित	-8155
क्ष्मी	-8156
▁आश्वासन	-8157
▁नामा	-8158
▁अफ्रिका	-8159
▁शहरी	-8160
▁कार्यालयबाट	-8161
▁पौडेलको	-8162
▁प्रवासी	-8163
▁काठमाडौँमा	-8164
▁राष्ट्रियता	-8165
▁अक्टोबर	-8166
▁प्रेरित	-8167
▁सालदेखि	-8168
▁बनाउनुपर्ने	-8169
पाठ	-8170
▁अवतरण	-8171
ीनारायण	-8172
▁नेपालगन्ज	-8173
▁ढाँच	-8174
▁मङ्गलबार	-8175
▁गृहकार्य	-8176
च्	-8177
▁अँ	-8178
▁धौ	-8179
▁युवालाई	-8180
▁हजारभन्दा	-8181
▁कुरै	-8182
▁अन्ततः	-8183
▁चाइ	-8184
▁ढुक्क	-8185
▁भोजपुर	-8186
▁सामग्र	-8187
दिन्छ	-8188
पानीको	-8189
▁सुवास	-8190
▁दुर्गम	-8191
▁झड	-8192
हुन्न	-8193
▁मानेर	-8194
▁उद्यम	-8195
▁गुमाएका	-8196
▁ब्राजिल	-8197
ow	-8198
१३	-8199
▁नसके	-8200
▁अन्याय	-8201
▁अवस्थाको	-8202
▁किसानलाई	-8203
▁साम्राज्य	-8204
तर्फी	-8205
▁अवलम्बन	-8206
▁महामन्त्री	-8207
ig	-8208
▁मेलमिला	-8209
▁सम्भावित	-8210
▁गर्द	-8211
डेल्	-8212
टका	-8213
आएको	-8214
यरिङ	-8215
▁झगडा	-8216
▁समुद्र	-8217
शो	-8218
रलाई	-8219
▁फार	-8220
▁बिष्ट	-8221
▁हल्का	-8222
▁हितमा	-8223
▁६९	-8224
▁८३	-8225
▁२०१३	-8226
▁हेटौंडा	-8227
▁सुत्केरी	-8228
भएको	-8229
किङ्ग	-8230
▁युएई	-8231
▁ग्	-8232
▁परिकार	-8233
▁वेबसाइट	-8234
▁पाहु	-8235
▁भवनमा	-8236
प्ताहिक	-8237
▁उठाएको	-8238
▁कं	-8239
▁गुज	-8240
▁सदस्यहरु	-8241
▁एम्बु	-8242
▁।'	-8243
▁गिर	-8244
▁हेलि	-8245
ेग	-8246
▁छुट्टा	-8247
▁समुदायलाई	-8248
▁विश्वकर्मा	-8249
▁भिटाम	-8250
▁बोलाएर	-8251
▁साँस्कृतिक	-8252
प्रेर	-8253
▁रोजा	-8254
▁सोलुखु	-8255
▁आजदेखि	-8256
▁औचित्य	-8257
▁जितेर	-8258
पत्रिका	-8259
ुले	-8260
▁एप	-8261
▁अछाम	-8262
▁W	-8263
▁जता	-8264
▁आइरहेका	-8265
▁मेलामा	-8266
▁रावल	-8267
▁काठमाडौंका	-8268
▁सङ्क	-8269
▁नमिल्ने	-8270
▁अभियानको	-8271
▁वर्	-8272
▁१९६	-8273
▁ऐनको	-8274
▁गाउँको	-8275
▁पटकपटक	-8276
▁नसकेपछि	-8277
ँची	-8278
▁चारै	-8279
▁जात्रा	-8280
▁डाय	-8281
▁युनिभ	-8282
योजित	-8283
▁तिहारमा	-8284
टेको	-8285
▁धेरैको	-8286
▁परिसरमा	-8287
विरुद्धको	-8288
ोजे	-8289
▁त्यहीँ	-8290
▁बुधवार	-8291
▁लागतमा	-8292
▁शुक्रवार	-8293
▁गतेबाट	-8294
▁छोराको	-8295
▁माओवादीका	-8296
▁बाह्र	-8297
▁क्लबले	-8298
▁सरा	-8299
▁८२	-8300
ारामा	-8301
▁उतार	-8302
▁सिधै	-8303
▁चीनका	-8304
कामा	-8305
▁सरस्वती	-8306
▁शरणार्थी	-8307
▁आदानप्रदान	-8308
▁बिर्स	-8309
▁सुनिल	-8310
▁युनाइटेड	-8311
▁जाम	-8312
▁नहोस्	-8313
▁सुनार	-8314
▁सूचनाको	-8315
मन्त्रीको	-8316
राही	-8317
▁कलेजमा	-8318
▁मानन्ध	-8319
जू	-8320
▁जंगल	-8321
▁भएकाे	-8322
▁फस	-8323
▁दम्प	-8324
▁दोब्बर	-8325
▁हेर्दै	-8326
अगा	-8327
▁युक	-8328
▁खत्र	-8329
▁भूगोल	-8330
▁मनोनयन	-8331
▁to	-8332
▁समेटिएको	-8333
लेक्ट	-8334
▁गरेन	-8335
▁भीमदत्त	-8336
▁भावी	-8337
▁सुमन	-8338
▁दिएकी	-8339
▁नाकाबन्द	-8340
याएको	-8341
▁छायाँ	-8342
▁सप्तरी	-8343
▁नगर्नु	-8344
▁हेलिकप्टर	-8345
केश	-8346
सम्मत	-8347
▁माल्दिभ्	-8348
▁खेर	-8349
▁बाँके	-8350
▁अन्यथा	-8351
▁बैठकको	-8352
ट्टि	-8353
▁गौरी	-8354
बुटी	-8355
न्मुख	-8356
▁दिपा	-8357
▁मनाङ	-8358
हाम्रो	-8359
▁बाँच्न	-8360
▁दायरामा	-8361
▁उपप्रधानमन्त्री	-8362
जस्ती	-8363
मोचन	-8364
▁बलात्	-8365
▁थपिएको	-8366
लान	-8367
सकेकी	-8368
▁read	-8369
▁दिल	-8370
▁दिल्	-8371
▁पाटो	-8372
▁टोलीका	-8373
▁टोलीको	-8374
▁दक्षिणी	-8375
▁ओलम्पिक	-8376
पेट	-8377
बेर	-8378
▁कुशल	-8379
▁रोका	-8380
▁ज्ञवालीले	-8381
▁परिकल्पना	-8382
▁शर्माको	-8383
रू	-8384
▁दास	-8385
▁बजेर	-8386
▁राउत	-8387
▁ब्यवसाय	-8388
पर्धा	-8389
पारी	-8390
र्टर	-8391
▁थप्	-8392
वर्ती	-8393
▁विरामी	-8394
दमा	-8395
▁खल	-8396
▁हिड	-8397
▁एसएल	-8398
नुपर्दा	-8399
▁e	-8400
▁बढीको	-8401
▁चाडपर्व	-8402
▁जिन्दगी	-8403
▁जिज्ञासा	-8404
धनको	-8405
▁ताम	-8406
▁बोहरा	-8407
▁अडि	-8408
▁शिला	-8409
▁२०६८	-8410
▁परिसू	-8411
▁पदको	-8412
▁दिनपछि	-8413
▁साप्ताहिक	-8414
▁मन्त्रिपरिषद्को	-8415
प्रदेश	-8416
▁चलखेल	-8417
▁माने	-8418
▁पार्व	-8419
▁भुकम्प	-8420
▁बुझाउने	-8421
▁फर्किएका	-8422
▁दुव	-8423
▁चलाइ	-8424
▁रवी	-8425
▁मापन	-8426
▁जोड्न	-8427
बस	-8428
▁जिक	-8429
▁गोल्	-8430
▁घोषणापत्र	-8431
▁सकिए	-8432
▁तैपनि	-8433
▁सडकखण्ड	-8434
कांक्षा	-8435
▁परिमाण	-8436
▁कोरियाको	-8437
▁समृद्धिका	-8438
▁बेच्ने	-8439
▁प्रकृया	-8440
▁अध्ययनका	-8441
▁चुप	-8442
▁दृढ	-8443
ख्यात	-8444
वाहित	-8445
▁जिता	-8446
▁भगवान्	-8447
▁फ्रि	-8448
▁युट्युब	-8449
▁मानवअधिकार	-8450
▁चिन्ति	-8451
▁आरम्भ	-8452
भाई	-8453
▁हालेर	-8454
▁गम्भिर	-8455
रिय	-8456
▁कमाउन	-8457
▁झै	-8458
▁ज्ञवाली	-8459
▁विद्रोह	-8460
▁डडेल्	-8461
▁ज्वा	-8462
▁चिन्तन	-8463
▁निकाल्ने	-8464
▁७१	-8465
▁माउ	-8466
▁हुँदाहुँदै	-8467
▁घुमा	-8468
▁सहिद	-8469
▁दिन्छन्	-8470
▁महेन्द्रनगर	-8471
▁गान्ध	-8472
▁स्रष्टा	-8473
▁आपसमा	-8474
▁सिन्ड	-8475
▁नेदर	-8476
▁यतिखेर	-8477
ितीय	-8478
▁निराश	-8479
▁महाराज	-8480
▁सम्पर्	-8481
▁बलात्कारपछि	-8482
▁विमा	-8483
मन्त्रीले	-8484
▁नोभेम्बर	-8485
▁लघुवित्त	-8486
▁प्रकृतिको	-8487
पछी	-8488
▁दाम	-8489
▁शही	-8490
▁कोषको	-8491
▁मनाइने	-8492
▁ध्यानमा	-8493
▁तेह्र	-8494
गृह	-8495
ेन्ज	-8496
र्पोर	-8497
▁निरीक्षण	-8498
▁राष्ट्रपतिको	-8499
धम	-8500
पनको	-8501
▁हटा	-8502
▁सामान्यतया	-8503
्याएको	-8504
▁जीवित	-8505
▁काउन्सि	-8506
▁सज	-8507
▁माह	-8508
▁२०६४	-8509
▁विनाश	-8510
▁उन्मुख	-8511
▁प्रर्द	-8512
जिर	-8513
विक्रम	-8514
▁प्रोट	-8515
▁सुन्ने	-8516
▁पाउनेछन्	-8517
▁स्तरको	-8518
बुद्ध	-8519
▁बाग्	-8520
▁बनेपछि	-8521
▁निर्मित	-8522
▁काफ्ले	-8523
▁पद्	-8524
▁छोरो	-8525
▁नम्बरमा	-8526
▁निशुल्क	-8527
मेट	-8528
▁खाडी	-8529
▁पाउँछन्	-8530
▁पल्ट	-8531
▁बिति	-8532
जीव	-8533
▁चिन्तित	-8534
▁कोइरालाको	-8535
▁बेल्जिय	-8536
▁वक्त	-8537
▁निराशा	-8538
▁स्नातक	-8539
▁टोलीलाई	-8540
▁कसुर	-8541
▁पहिरोले	-8542
▁प्रदूषण	-8543
▁पृथ्वीनारायण	-8544
ट्र	-8545
▁सुदृढ	-8546
▁निकासी	-8547
▁भानुभक्त	-8548
▁इमान	-8549
▁कमाइ	-8550
▁खोजिएको	-8551
▁अर्कोतिर	-8552
▁टेवा	-8553
▁रेग्मीले	-8554
ul	-8555
पालीका	-8556
▁पाठ्यक्रम	-8557
ौटी	-8558
▁नियत	-8559
▁पेरि	-8560
▁भेटमा	-8561
▁कुराहरू	-8562
ण्डी	-8563
▁एनस	-8564
ड्रिड	-8565
▁बहुम	-8566
▁आवासीय	-8567
▁समग्रमा	-8568
▁बिरामीलाई	-8569
ानले	-8570
▁समाजसेवी	-8571
▁गिरिजा	-8572
▁डडेल्धु	-8573
मिर	-8574
▁घन	-8575
▁खर्	-8576
▁भोलिपल्ट	-8577
▁एकाएक	-8578
▁भेग	-8579
▁हानी	-8580
नेश्वर	-8581
▁गोल्ड	-8582
▁राज्यमा	-8583
हानी	-8584
▁सार्ब	-8585
▁परमेश्व	-8586
▁विन	-8587
▁ब्रह्	-8588
▁संचालक	-8589
▁हात्ती	-8590
▁खोजीमा	-8591
ँदो	-8592
ment	-8593
▁खटिएका	-8594
▁निमार्ण	-8595
एकै	-8596
▁खाँचो	-8597
▁भिटामिन	-8598
▁राज्यमन्त्री	-8599
िएर	-8600
▁खर	-8601
▁ट्रक	-8602
▁देख्ने	-8603
▁ऐनमा	-8604
▁हाउस	-8605
▁सँगसँगै	-8606
▁एसि	-8607
हेर	-8608
▁सोलुखुम्बु	-8609
▁कमिट	-8610
▁पारस	-8611
ेजस्तो	-8612
▁भारतसँग	-8613
▁रेश	-8614
चालित	-8615
▁त्यसमाथि	-8616
क्व	-8617
ख्यक	-8618
iv	-8619
▁हदसम्म	-8620
▁कोरियाले	-8621
▁अनियमितता	-8622
▁खेलेका	-8623
▁विषयवस्तु	-8624
▁खोप	-8625
▁निकायका	-8626
▁सारेको	-8627
्यौ	-8628
▁तिनलाई	-8629
▁देखाउँछ	-8630
▁भाइटीका	-8631
▁भनेकै	-8632
▁किन्ने	-8633
▁उजा	-8634
गे	-8635
▁प्रधाना	-8636
▁सिन्धुली	-8637
▁उदार	-8638
▁एन्फा	-8639
▁गर्नुपर्नेमा	-8640
करणको	-8641
ुरेन्ट	-8642
▁मुनाफा	-8643
ाउनुपर्छ	-8644
▁प्रहरीमा	-8645
▁साहित्यको	-8646
लम	-8647
यिक	-8648
▁२०१२	-8649
▁नजर	-8650
▁हड्	-8651
▁अरुको	-8652
▁आम्दान	-8653
▁वृत्त	-8654
▁एकेडेमी	-8655
▁चाहन्छन्	-8656
▁व्यवस्थाको	-8657
▁थ्री	-8658
▁सस्था	-8659
▁सहमतिमा	-8660
▁विद्यालयले	-8661
▁उपराष्ट्रपति	-8662
▁हर्ष	-8663
▁वस्तुको	-8664
▁जिल्लाबाट	-8665
दिप	-8666
पास	-8667
▁साफ	-8668
▁कटौती	-8669
▁अनौपचारिक	-8670
पोत	-8671
योजक	-8672
▁थिई	-8673
▁विपरित	-8674
▁वढ	-8675
वेला	-8676
▁च्यानल	-8677
▁लाभांश	-8678
▁जथाभावी	-8679
सकै	-8680
▁अमृत	-8681
▁बस्दा	-8682
▁पेनाल्	-8683
ाचार	-8684
जति	-8685
▁कमै	-8686
चिएको	-8687
▁बिरा	-8688
▁निर्माणाधीन	-8689
▁स्वभाविक	-8690
भूकम्प	-8691
▁अबस्था	-8692
▁आजसम्म	-8693
▁भित्रै	-8694
▁काटेर	-8695
▁हिन्दी	-8696
▁अमेरिकाका	-8697
यका	-8698
पुरा	-8699
▁सरि	-8700
▁पारदर्शी	-8701
▁थाह	-8702
▁सुखी	-8703
▁चाँडो	-8704
▁अन्तर्वार्ता	-8705
ct	-8706
▁सफाइ	-8707
न्तब्य	-8708
▁८६	-8709
▁अब्	-8710
▁पिडित	-8711
▁कुनैपनि	-8712
▁सहरमा	-8713
▁डाउनलोड	-8714
▁सहुलियत	-8715
▁पृष्ठभूमि	-8716
▁भण्डारीको	-8717
फर्म	-8718
▁गैं	-8719
सिन	-8720
लिएका	-8721
▁ब्याजदर	-8722
▁भारतलाई	-8723
▁माथिको	-8724
▁महासंघले	-8725
▁पुर्‍याउन	-8726
▁नगरे	-8727
▁कस्ता	-8728
▁मृतक	-8729
▁समाधानका	-8730
▁संशोधनको	-8731
▁झल्	-8732
▁कतिपयले	-8733
▁संरचनामा	-8734
▁बङ्गलादेश	-8735
▁बन्दर	-8736
▁प्रतिनिधिसभाको	-8737
बमा	-8738
▁घर्ती	-8739
▁मुखमा	-8740
▁काठमाडाैं	-8741
▁ग्यार	-8742
oo	-8743
विपरी	-8744
▁रद्द	-8745
▁सतर्क	-8746
▁अध्यादेश	-8747
▁जानुपर्ने	-8748
▁चिज	-8749
▁शिर्ष	-8750
▁कक्षामा	-8751
▁विपद्	-8752
▁एयरलाइ	-8753
▁गच्छदार	-8754
▁बसपार्क	-8755
▁वो	-8756
▁बताएकी	-8757
▁सक्नुपर्छ	-8758
▁व्यावहारिक	-8759
टिक	-8760
▁भरपर्	-8761
▁भ्रष्ट	-8762
क्ताको	-8763
▁संघिय	-8764
▁इञ्	-8765
▁ठूलै	-8766
▁श्रीमत	-8767
याले	-8768
▁चोर	-8769
▁फर्केर	-8770
बित्तिकै	-8771
▁अध्ययनले	-8772
▁एभरे	-8773
▁खोल्	-8774
▁खाएको	-8775
▁कटु	-8776
▁कफी	-8777
▁फाल्	-8778
▁माता	-8779
▁मोटो	-8780
▁हजारको	-8781
▁पटकको	-8782
▁लिनुपर्ने	-8783
▁लम्	-8784
▁मान्छेलाई	-8785
▁महासंघको	-8786
हाई	-8787
सङ्ख्या	-8788
▁घोराही	-8789
▁सिलव	-8790
▁बुँदा	-8791
▁गाउँले	-8792
सेना	-8793
▁माई	-8794
▁गएरा	-8795
▁लन्डन	-8796
▁सिंगो	-8797
▁याताया	-8798
लाउन	-8799
▁लोग	-8800
▁साक्षर	-8801
▁सुनेर	-8802
▁संगीतकार	-8803
▁चिन्	-8804
▁सकेर	-8805
▁सावित	-8806
▁प्रतिस्पर्धामा	-8807
▁सुनुवाई	-8808
▁अरुलाई	-8809
▁स्वरमा	-8810
▁विद्	-8811
▁रकमको	-8812
▁सदस्यता	-8813
▁पुनरा	-8814
▁कामहरु	-8815
▁राख्दा	-8816
नेस	-8817
▁बटु	-8818
▁सफ्टवेयर	-8819
▁छर	-8820
____	-8821
▁बजा	-8822
▁डलरको	-8823
▁भिम	-8824
▁रेस	-8825
▁महादेव	-8826
सन्ध	-8827
▁महिनाअघि	-8828
▁मान्	-8829
▁उल्लं	-8830
▁हिमालय	-8831
गाड	-8832
▁गभ	-8833
▁तीमध्ये	-8834
▁दाहालको	-8835
▁बैङ्कले	-8836
▁सुनुवार	-8837
▁मृग	-8838
▁ढङ्गले	-8839
▁मधुमेह	-8840
▁निकालेर	-8841
.....	-8842
▁सबैमा	-8843
▁चिन्ह	-8844
▁उद्योगको	-8845
▁खग	-8846
▁ट्याक्सी	-8847
▁महोत्सवमा	-8848
▁कुवेत	-8849
▁तापक्रम	-8850
▁लम्स	-8851
▁दर्शकले	-8852
▁अधिवक्ता	-8853
▁अट	-8854
▁बढाएर	-8855
▁नाघ	-8856
▁शिविरमा	-8857
▁अतिक्रमण	-8858
▁आयुर्वेद	-8859
▁महिनाभित्र	-8860
ँटा	-8861
▁वहाँ	-8862
▁मर्यादा	-8863
▁योजनाको	-8864
▁नानी	-8865
▁नपाइने	-8866
▁गठबन्धनको	-8867
▁नेवि	-8868
▁डान्स	-8869
▁बागलु	-8870
▁पदम	-8871
स्वरूप	-8872
▁सिमित	-8873
▁सार्वभौम	-8874
धमा	-8875
▁मर्	-8876
तीर्ण	-8877
▁भवनको	-8878
▁पर्छन्	-8879
▁सवालमा	-8880
▁बार्षिक	-8881
वन्ध	-8882
▁राष्ट्रका	-8883
▁नौलो	-8884
▁जानेछ	-8885
▁ग्रन्थ	-8886
▁छिर	-8887
▁कच्चा	-8888
मन्त्रालय	-8889
▁बसे	-8890
▁आवको	-8891
▁अराज	-8892
क्सिको	-8893
▁नलाग्ने	-8894
▁वाचन	-8895
▁२०६३	-8896
▁बुझेर	-8897
▁गीतकार	-8898
▁टोलीमा	-8899
▁सफलताको	-8900
▁प्रमो	-8901
ेटी	-8902
▁डटक	-8903
▁महाअ	-8904
▁घटनास्थल	-8905
ूत	-8906
▁खुलेर	-8907
▁बुहारी	-8908
बिच	-8909
▁आशि	-8910
▁न्यौपानेले	-8911
घ्र	-8912
लिप	-8913
लामी	-8914
विना	-8915
▁प्रचण्डको	-8916
▁लाइफ	-8917
▁गाडीमा	-8918
▁प्रोजे	-8919
▁सन्दीप	-8920
▁सहयोगका	-8921
्नै	-8922
▁ठप्प	-8923
▁धमाधम	-8924
▁बिर्ता	-8925
म्भव	-8926
▁जलवा	-8927
▁अत्यावश्यक	-8928
पाती	-8929
▁पूर्णिमा	-8930
▁कर्पोर	-8931
▁विश्वस्त	-8932
▁जुत्ता	-8933
▁ब्रान्ड	-8934
त्तिको	-8935
▁स्पेन	-8936
▁निक्कै	-8937
▁मुस्ताङ	-8938
▁डिसेम्बर	-8939
▁आवत	-8940
▁गगन	-8941
▁छरि	-8942
▁बीबी	-8943
▁मिर्ग	-8944
▁इन्स्योर	-8945
▁सबैका	-8946
▁घाई	-8947
▁पढेर	-8948
▁विधेयकमा	-8949
▁एशो	-8950
▁बुटव	-8951
वासीको	-8952
▁दुईजना	-8953
न्यु	-8954
▁चन्दा	-8955
nb	-8956
▁मूल्याङ्कन	-8957
▁सरोज	-8958
▁गिरीले	-8959
▁साझेदार	-8960
▁विदेशबाट	-8961
▁जनसङ्ख्या	-8962
फिया	-8963
म्पा	-8964
▁हुला	-8965
▁हुन्छन	-8966
▁सापकोटाले	-8967
ड्स	-8968
हीं	-8969
हारा	-8970
▁जिकिर	-8971
▁सेवाका	-8972
▁देशभरका	-8973
▁माक्र्स	-8974
▁जबर्ज	-8975
▁सेनाका	-8976
▁उपाध्यक्षमा	-8977
▁नम्वर	-8978
डका	-8979
▁गरें	-8980
▁बन्दी	-8981
▁श्रोत	-8982
▁धनगढ	-8983
▁फाइल	-8984
▁थाल्छ	-8985
▁दिइन्	-8986
▁कालिका	-8987
▁समितिलाई	-8988
▁सिन्डिकेट	-8989
ंखला	-8990
▁प्रतिशतभन्दा	-8991
देखी	-8992
▁अंकले	-8993
▁बढेका	-8994
▁बित्तिकै	-8995
स्कोटा	-8996
▁सहजीकरण	-8997
▁कार्यसमि	-8998
▁बेलायतमा	-8999
नाक	-9000
▁उति	-9001
ोनेसिया	-9002
▁पाएँ	-9003
▁नाराका	-9004
▁सम्बद्ध	-9005
खान	-9006
▁रारा	-9007
▁समेटेर	-9008
▁छक्का	-9009
▁भनिएका	-9010
▁ल्याउनु	-9011
▁दूर	-9012
▁अपांग	-9013
▁पुर्न	-9014
▁बिचार	-9015
▁आमालाई	-9016
▁जनचेतना	-9017
▁रूपान्तरण	-9018
▁महिनासम्म	-9019
न्दन	-9020
▁२०११	-9021
▁विन्दु	-9022
गंगा	-9023
सिनो	-9024
भियोग	-9025
▁फिफा	-9026
िला	-9027
▁७९	-9028
▁शपथ	-9029
▁प्रशोधन	-9030
▁समाचारमा	-9031
▁स्थानीयको	-9032
▁९३	-9033
▁2018	-9034
▁वर्गको	-9035
▁दुनियाँ	-9036
▁अनुसन्धानका	-9037
▁टेलिफोन	-9038
▁सेमिफाइनल	-9039
▁मोर्चाले	-9040
▁साहित्यमा	-9041
पदा	-9042
न्द्रा	-9043
▁बेलायतको	-9044
▁सहरी	-9045
▁हत्याको	-9046
▁क्षेत्रले	-9047
दोष	-9048
▁बीपी	-9049
▁बढेपछि	-9050
▁लहर	-9051
▁घटेर	-9052
समध्ये	-9053
▁लोप	-9054
▁पिसाब	-9055
▁स्वाद	-9056
▁निर्देशित	-9057
क्षि	-9058
▁देखेपछि	-9059
▁बताइन्छ	-9060
▁न्युयोर्क	-9061
चल	-9062
▁तराईका	-9063
▁सङ्गीत	-9064
▁जन्मिएका	-9065
▁व्यवसायीको	-9066
▁मुआ	-9067
▁शहीद	-9068
▁मध्या	-9069
▁अत्याधुनिक	-9070
साङ	-9071
▁सक्दछ	-9072
▁रेमिट्या	-9073
▁प्रशासकीय	-9074
र्नर	-9075
▁संहिता	-9076
छे	-9077
हार्य	-9078
▁वरपर	-9079
▁अधिनायक	-9080
▁विविधता	-9081
▁विश्वविद्यालयका	-9082
',	-9083
▁कमरेड	-9084
▁अदुवा	-9085
▁बैतडी	-9086
▁शोक	-9087
▁प्राण	-9088
▁बताउदै	-9089
टिन	-9090
सेर	-9091
▁अफर	-9092
सहितका	-9093
▁ज्यादै	-9094
▁किनारमा	-9095
▁बनाउनका	-9096
▁संसद्को	-9097
▁स्याङ्जा	-9098
▁गठबन्धनले	-9099
▁नेताहरुको	-9100
ऊँ	-9101
qu	-9102
ाल्न	-9103
▁उक्	-9104
▁मजबु	-9105
▁२०१०	-9106
बेल	-9107
कर्मीले	-9108
▁मिडियामा	-9109
▁समस्यालाई	-9110
फरक	-9111
म्मद	-9112
▁प्रवि	-9113
▁दलहरूले	-9114
्याङ	-9115
▁लगेको	-9116
▁स्वाय	-9117
ine	-9118
विपरीत	-9119
▁आत्मसा	-9120
▁निमन्त्र	-9121
▁आइतवार	-9122
▁अनसन	-9123
▁उपवि	-9124
▁तेक्वा	-9125
त्यस	-9126
▁हिसा	-9127
▁नामले	-9128
▁जीवनका	-9129
▁एकअर्का	-9130
▁गठबन्धनका	-9131
▁ट्वि	-9132
▁कायमै	-9133
वृ	-9134
▁गरौँ	-9135
▁राजि	-9136
▁९६	-9137
▁गरिन	-9138
▁डेभल	-9139
▁टुक्रा	-9140
▁लागेपछि	-9141
माको	-9142
▁अफिस	-9143
▁बोली	-9144
स्तरको	-9145
▁यसकारण	-9146
▁विभागमा	-9147
▁प्रस्तुती	-9148
▁सार्बजनिक	-9149
णमा	-9150
▁सन्तुलन	-9151
▁कोशी	-9152
▁बाजु	-9153
▁आउँदैन	-9154
▁भरिएको	-9155
▁अन्तरले	-9156
▁उठाएका	-9157
▁मगरले	-9158
▁खुकु	-9159
▁अदालतका	-9160
▁दलहरुले	-9161
▁राहदानी	-9162
त्सा	-9163
▁आगमन	-9164
▁गाविसमा	-9165
▁परिसूचक	-9166
▁दस्ताव	-9167
▁सुरुवा	-9168
–‘	-9169
▁अपमान	-9170
▁९४	-9171
▁नहुन	-9172
▁स्थलमा	-9173
▁क्यार	-9174
▁प्रमुखको	-9175
▁महिनावारी	-9176
▁मुक्तिनाथ	-9177
▁आश्र	-9178
▁सेल्	-9179
▁गर्नाले	-9180
▁बिमस्टेक	-9181
▁व्यवस्थापनका	-9182
म्बी	-9183
▁लण्डन	-9184
कर्मीको	-9185
▁लामिछानेले	-9186
लोजी	-9187
▁अला	-9188
▁ढुङ्गा	-9189
▁विभाजित	-9190
पहि	-9191
फामा	-9192
▁जेलमा	-9193
▁चुरोट	-9194
▁निष्पक्ष	-9195
▁सना	-9196
▁निरु	-9197
▁सम्झौतामा	-9198
▁अपरिहार्य	-9199
▁सरह	-9200
▁खोलेर	-9201
▁हेलिको	-9202
▁प्रेममा	-9203
दिएका	-9204
▁नचाह	-9205
▁तिनीहरूले	-9206
out	-9207
▁काट्ने	-9208
▁बताउने	-9209
▁बस्तीमा	-9210
▁भइन्	-9211
▁हालतमा	-9212
कासन	-9213
ष्ठा	-9214
व्र्य	-9215
▁सोधे	-9216
▁सहारा	-9217
दण्ड	-9218
▁सभासद	-9219
▁९२	-9220
ुग	-9221
एमई	-9222
फ्र	-9223
▁गोरु	-9224
▁उदयपुर	-9225
▁अहिलेका	-9226
▁सोमवार	-9227
▁शुरुवात	-9228
्यारा	-9229
▁बझा	-9230
▁पाइला	-9231
छुट्	-9232
▁रोड	-9233
▁बढाइएको	-9234
▁सिद्धार्थ	-9235
▁g	-9236
ेश्वरी	-9237
▁खोज्नु	-9238
▁सहमतिको	-9239
▁अरे	-9240
▁दाँत	-9241
▁हेटौँ	-9242
▁सिमाना	-9243
▁सिस्टम	-9244
▁अनुशासन	-9245
▁प्रतिशतको	-9246
▁अधिकारीहरुले	-9247
शे	-9248
▁नारायणगढ	-9249
▁महोत्तरी	-9250
▁ओझ	-9251
▁काभ्रे	-9252
▁सक्छौं	-9253
▁स्कुलमा	-9254
▁सव	-9255
▁लेन	-9256
▁मेहनत	-9257
पश्चात्	-9258
▁अङ्ग्र	-9259
▁भेदभाव	-9260
▁सन्तुष्ट	-9261
▁खेलाडीलाई	-9262
▁रजत	-9263
▁घरधु	-9264
▁मामि	-9265
▁छेउमा	-9266
▁विद्रोही	-9267
▁घाउ	-9268
▁खाले	-9269
▁मसँग	-9270
▁कहिलेकाहीँ	-9271
पीको	-9272
▁अभियानका	-9273
▁पार्टीभित्र	-9274
▁शार	-9275
▁थालि	-9276
र्द्धन	-9277
▁टर्की	-9278
▁धरा	-9279
▁पहे	-9280
लेश्वर	-9281
▁किसानको	-9282
▁तिनीहरू	-9283
षित	-9284
▁ट्रफी	-9285
▁प्याकेज	-9286
प्या	-9287
▁अत्याधिक	-9288
▁हाे	-9289
▁चाहिं	-9290
ak	-9291
▁मध्यन	-9292
▁गरेनन्	-9293
ुण	-9294
▁आप्रवासी	-9295
▁परिरहेको	-9296
▁स्वायत्त	-9297
▁बन्दुक	-9298
विरोध	-9299
▁सत्ताको	-9300
▁ओखलढुंगा	-9301
▁यहा	-9302
बजारमा	-9303
▁यातना	-9304
▁मेक्सिको	-9305
नुभएन	-9306
▁तपाइ	-9307
▁बाक्लो	-9308
▁नहर	-9309
▁प्लस	-9310
▁साथीहरु	-9311
▁साटो	-9312
▁खाँदा	-9313
▁पढ्दा	-9314
▁नगर्दा	-9315
▁मतपत्र	-9316
फिल्	-9317
▁हर्क	-9318
▁घटनाले	-9319
▁पुग्नु	-9320
▁महाशाखाले	-9321
क्ष्यमा	-9322
▁ड्राइ	-9323
▁बेच्न	-9324
▁बेग्लै	-9325
▁गरीब	-9326
▁शत्रु	-9327
▁पल	-9328
▁न्युज	-9329
मिन	-9330
▁पनी	-9331
आफ्ना	-9332
▁इमेल	-9333
▁व्यवस्थापनको	-9334
ूर	-9335
▁v	-9336
ालिटी	-9337
▁पचा	-9338
▁काठमाडौँको	-9339
ेन्टी	-9340
▁अन्योल	-9341
यज	-9342
निर	-9343
▁घाईते	-9344
▁वक्तव्य	-9345
परेका	-9346
▁भनिए	-9347
▁रोशन	-9348
▁तथापि	-9349
▁थापालाई	-9350
▁सकिएपछि	-9351
पछ	-9352
आईजी	-9353
▁हान	-9354
▁धेरैलाई	-9355
आत	-9356
काजी	-9357
▁रोपा	-9358
▁बिद्यार्थी	-9359
ीति	-9360
ौलाले	-9361
▁पुलि	-9362
▁बेलुकी	-9363
▁संसारको	-9364
७१	-9365
खर्क	-9366
▁नुन	-9367
▁इलेक्ट	-9368
ालीमा	-9369
▁गर्व	-9370
कुलपति	-9371
तीन	-9372
र्पित	-9373
▁छोरीलाई	-9374
▁In	-9375
वृद्ध	-9376
▁नायव	-9377
▁ज्वरो	-9378
▁रणनीतिक	-9379
▁भोग्नु	-9380
▁अभियन्ता	-9381
▁किनेर	-9382
▁पुलको	-9383
▁शिक्षकको	-9384
lo	-9385
▁८१	-9386
▁बाजा	-9387
▁निबन्ध	-9388
▁ह्वा	-9389
चाँ	-9390
▁ठकु	-9391
▁बक्स	-9392
▁फूलको	-9393
▁आफूहरु	-9394
▁दुख्ने	-9395
▁सांग	-9396
▁पर्यटकलाई	-9397
▁शाहको	-9398
▁मुआब्जा	-9399
थिन्	-9400
▁बिर	-9401
▁मध्यनजर	-9402
▁नामावली	-9403
▁वातावरणमा	-9404
ारीमा	-9405
▁आँखामा	-9406
▁रामेछाप	-9407
▁डिग्री	-9408
▁राप्ती	-9409
टिभ	-9410
हाङ	-9411
▁२०२०	-9412
▁करोडौं	-9413
▁पुर्याउन	-9414
▁लौ	-9415
▁निकायलाई	-9416
▁एकदम	-9417
▁मलेसियामा	-9418
▁केन्द्रबाट	-9419
दह	-9420
▁आब	-9421
▁केटाकेट	-9422
▁बर्खास्त	-9423
▁जोन	-9424
▁वंश	-9425
▁बालकृष्ण	-9426
ut	-9427
▁पुलिस	-9428
▁घरका	-9429
झैँ	-9430
▁वर्षौं	-9431
व्यवस्था	-9432
▁बैङ्कको	-9433
▁आइपुग्दा	-9434
▁मझ	-9435
▁पाटन	-9436
▁स्तन	-9437
साथै	-9438
▁हेड	-9439
▁हौँ	-9440
▁बित्	-9441
▁पत्राचार	-9442
ग्रेस	-9443
▁पदका	-9444
▁जनावर	-9445
▁लगिएको	-9446
▁८७	-9447
▁कलम	-9448
▁पैसाको	-9449
▁लेखेर	-9450
▁बोकेका	-9451
▁ब्याटिङ	-9452
गीत	-9453
मुलक	-9454
▁क्याम	-9455
▁फर्का	-9456
▁सुधा	-9457
▁तुरुन्तै	-9458
▁महशु	-9459
▁फाउण्ड	-9460
▁नक	-9461
ाउदै	-9462
▁लेखि	-9463
▁छाड्ने	-9464
▁अध्यक्षता	-9465
▁व्यवस्थापक	-9466
विवाह	-9467
▁तिमीले	-9468
▁परिक्षा	-9469
▁सम्भाव्यता	-9470
▁राधा	-9471
▁पोषण	-9472
▁मिसा	-9473
▁नर्सि	-9474
▁अर्काको	-9475
▁देखाएका	-9476
▁युवाको	-9477
▁कृष्णबहादुर	-9478
▁लिँदै	-9479
▁क्यामेरा	-9480
nbsp	-9481
▁थारू	-9482
▁निवासमा	-9483
▁अभियानलाई	-9484
▁क्रान्तिको	-9485
मधुर	-9486
▁दसैँ	-9487
कानुनी	-9488
▁प्रशारण	-9489
▁बिरुद्ध	-9490
▁भूकम्पपीडित	-9491
▁बढ्नेछ	-9492
▁सामुहिक	-9493
▁२०६९	-9494
▁आश्रम	-9495
▁एसएसपी	-9496
ेटर	-9497
▁ल्याई	-9498
▁साताको	-9499
▁महिनापछि	-9500
▁भैर	-9501
▁गायन	-9502
▁जलवायु	-9503
▁सास्ती	-9504
▁समर्पित	-9505
चिब	-9506
धना	-9507
दिनँ	-9508
▁विघ	-9509
▁बाला	-9510
▁एजेन्डा	-9511
नुका	-9512
ञ्जली	-9513
▁बढ्यो	-9514
▁भाइरल	-9515
▁यात्राको	-9516
▁बिक्र	-9517
▁प्राज्ञ	-9518
▁मेट्रिक	-9519
▁प्रयोजनका	-9520
वपूर्ण	-9521
न्दर्भिक	-9522
▁काँग्रेसको	-9523
▁सर्वसाधारणको	-9524
ap	-9525
खाले	-9526
▁मिठा	-9527
▁रूपै	-9528
▁गरीएको	-9529
▁दोहोरी	-9530
▁उपमे	-9531
▁म्याच	-9532
▁गोकर्ण	-9533
▁नेतालाई	-9534
▁भण्डारण	-9535
▁शरद	-9536
▁बराल	-9537
केका	-9538
▁कलाकारको	-9539
्स	-9540
जाले	-9541
निको	-9542
मोर्चा	-9543
▁उत्तीर्ण	-9544
▁U	-9545
▁चुनौति	-9546
▁प्रदायक	-9547
▁रामप्रसाद	-9548
▁हाल्ने	-9549
▁हुनुका	-9550
▁मेस्	-9551
▁एकदिन	-9552
▁शाखाका	-9553
▁येश	-9554
▁गुफा	-9555
▁महिलाहरुको	-9556
op	-9557
डु	-9558
▁टिभी	-9559
▁अन्र्तगत	-9560
त्तो	-9561
▁कृषिमा	-9562
ग्व	-9563
निका	-9564
▁सम्मि	-9565
फ्तार	-9566
▁निधि	-9567
▁सर्भि	-9568
खबर	-9569
▁वर्गका	-9570
▁पीडितलाई	-9571
▁९१	-9572
▁हेल्	-9573
▁पक्की	-9574
▁अप्रिल	-9575
▁बर्षमा	-9576
ामक	-9577
▁उखु	-9578
▁खसी	-9579
▁सचेतना	-9580
▁एकमात्र	-9581
▁एनआरएनए	-9582
▁ढुंगाना	-9583
▁लोडसेडिङ	-9584
▁कार्यदल	-9585
▁माथी	-9586
▁परीक्षाको	-9587
▁व्यवस्थामा	-9588
):	-9589
▁रङ	-9590
घाटमा	-9591
▁चीनसँग	-9592
र्सन	-9593
▁जडी	-9594
छुट्टै	-9595
▁यादवको	-9596
▁युनिभर्सि	-9597
▁प्रतिशतसम्म	-9598
स्पो	-9599
▁दुव्र्य	-9600
▁प्रकरणमा	-9601
▁कठोर	-9602
▁घेरा	-9603
▁युरोपेली	-9604
▁०५	-9605
▁दशै	-9606
▁खर्चि	-9607
▁जनवरी	-9608
▁टिमको	-9609
▁दिलाउन	-9610
▁नाता	-9611
▁स्वतः	-9612
▁वैचारिक	-9613
गारी	-9614
▁थियौँ	-9615
▁संसारका	-9616
▁देखाउँदै	-9617
▁कञ्चनपुरको	-9618
▁कार्यक्रमले	-9619
सीका	-9620
▁कदर	-9621
▁आजका	-9622
▁लैजा	-9623
▁कार्कीको	-9624
▁समानता	-9625
▁त्यहा	-9626
निर्वाचित	-9627
शू	-9628
कुण्ड	-9629
क्षमा	-9630
▁अण्डा	-9631
नुपर्यो	-9632
ेरु	-9633
▁हनुमान	-9634
▁मेलमिलाप	-9635
▁भट्टराईको	-9636
▁परिवर्तनका	-9637
अल	-9638
०६	-9639
सूची	-9640
▁झार	-9641
▁छैनौं	-9642
▁खड्काको	-9643
▁विधामा	-9644
ठान	-9645
▁नीतिमा	-9646
जग्गा	-9647
▁बढीमा	-9648
▁टावर	-9649
▁मिहिने	-9650
डले	-9651
▁अक्षर	-9652
▁नवीकरण	-9653
▁तप	-9654
▁कोषमा	-9655
▁सिलि	-9656
▁आदिको	-9657
▁पर्दै	-9658
▁तुलसीपुर	-9659
▁वार्तामा	-9660
▁मोडेल	-9661
▁प्रधानाध्यापक	-9662
▁जान्छन्	-9663
▁ललितपुरको	-9664
▁केरा	-9665
ियल	-9666
डम्ब	-9667
▁केबल	-9668
▁अवस्थालाई	-9669
▁स्वास्थ्यका	-9670
ङ्गको	-9671
▁प्रतिष्	-9672
ोमा	-9673
▁२०६२	-9674
प्राप्त	-9675
▁देउवाको	-9676
▁नभएसम्म	-9677
▁अधिकारीलाई	-9678
घोष	-9679
▁घले	-9680
▁दिनहुँ	-9681
▁समयपछि	-9682
▁संभावना	-9683
पनमा	-9684
▁उचा	-9685
▁एल्बम	-9686
▁आतिथ्य	-9687
▁ठाउँबाट	-9688
▁बालुवाटारमा	-9689
ग्ध	-9690
बाल	-9691
▁मुगु	-9692
▁रिसो	-9693
▁किसिमले	-9694
योग्रा	-9695
▁शब्दको	-9696
▁स्तम्भ	-9697
लाईन	-9698
▁छैट	-9699
▁पुर्	-9700
▁मेलम्ची	-9701
▁बाब	-9702
▁जातिको	-9703
▁फाउन्ड	-9704
▁गाय	-9705
▁उनीसँग	-9706
काठमाडौं	-9707
▁गरिदिएको	-9708
▁प्रयासमा	-9709
▁तेक्वान्दो	-9710
टीले	-9711
त्यो	-9712
▁ओग	-9713
्र्य	-9714
▁चढेर	-9715
▁हत्यामा	-9716
▁कारबाहीको	-9717
▁साहले	-9718
▁बन्दरगाह	-9719
भै	-9720
किएर	-9721
▁आवमा	-9722
▁सुमधुर	-9723
▁जान्न	-9724
▁उमेरका	-9725
▁बिक्रि	-9726
▁पब्लिक	-9727
▁विगतको	-9728
▁रहनुभएका	-9729
▁नमि	-9730
▁जबकि	-9731
▁घटाउन	-9732
वरमा	-9733
▁खाजा	-9734
▁स्टो	-9735
▁इच्छुक	-9736
▁सिफारिश	-9737
▁मुद्दाको	-9738
भिल	-9739
▁याम	-9740
▁रहेकोले	-9741
▁ठेग	-9742
▁शीर्षकमा	-9743
वंश	-9744
▁तालीम	-9745
▁प्रतिकूल	-9746
▁गाँउपालिका	-9747
▁पाइयो	-9748
▁युगमा	-9749
▁सिक्न	-9750
▁घटनाका	-9751
▁टेलिभि	-9752
▁इभ	-9753
▁उसै	-9754
▁जुल	-9755
▁पस्	-9756
▁News	-9757
▁रक्स	-9758
▁उल्लेखित	-9759
ers	-9760
▁झोल	-9761
▁नामबाट	-9762
▁रवीन्द्र	-9763
▁सिंगापुर	-9764
▁अठ	-9765
▁सुग	-9766
▁हाई	-9767
रीलाई	-9768
▁संलग्नता	-9769
▁भित्र्याउने	-9770
▁जीवनशैली	-9771
▁उपत्यकाका	-9772
चारु	-9773
▁होमि	-9774
जिल्ला	-9775
▁आइपुगेको	-9776
▁प्रभावशाली	-9777
▁रुस	-9778
▁मेची	-9779
▁विल	-9780
▁ताला	-9781
▁शब्दमा	-9782
▁स्वयम्	-9783
▁दर्शकको	-9784
▁धरहरा	-9785
▁जुटाउन	-9786
▁लाखभन्दा	-9787
ब्रु	-9788
▁दिक्त	-9789
▁क्लबका	-9790
▁निस्कने	-9791
▁भेटिएका	-9792
▁रघु	-9793
▁सेक	-9794
जेट	-9795
▁उठेर	-9796
▁पर्खाल	-9797
▁सेती	-9798
▁पसिना	-9799
▁माग्ने	-9800
▁दायाँ	-9801
▁शुभारम्भ	-9802
खुवास	-9803
▁भैलो	-9804
च्ची	-9805
▁जबर	-9806
▁सिरिया	-9807
कान्त	-9808
▁२०४६	-9809
▁दिवसका	-9810
▁मल्लले	-9811
▁राजाको	-9812
▁स्थलगत	-9813
▁वर्षभन्दा	-9814
▁निमन्त्रणा	-9815
▁काठमाडौंबाट	-9816
ुरा	-9817
▁चापा	-9818
▁२००८	-9819
▁उजागर	-9820
▁सुन्तला	-9821
▁J	-9822
▁पोख्र	-9823
▁सुधारको	-9824
४५	-9825
▁दमन	-9826
▁झोला	-9827
▁पाएर	-9828
▁उठाएर	-9829
▁दिमाग	-9830
▁पञ्जा	-9831
▁स्टोर	-9832
▁विश्वस	-9833
▁सक्नेछ	-9834
▁सङ्ग्रह	-9835
▁प्रदेशसभाको	-9836
▁टाँ	-9837
शान्ति	-9838
▁लमजुङ	-9839
▁सक्दो	-9840
▁धर्मको	-9841
▁इमान्दार	-9842
र्षिको	-9843
▁बच्चाको	-9844
▁टेलिकमले	-9845
ूले	-9846
▁घोडा	-9847
▁ओरालो	-9848
▁ठाउँको	-9849
▁कार्यक्षेत्र	-9850
▁कोरियामा	-9851
नेता	-9852
हाली	-9853
▁ध्वस्त	-9854
▁अन्तर्गतको	-9855
▁सच	-9856
सिलो	-9857
▁सुन्	-9858
▁कथामा	-9859
▁प्रवद्र्ध	-9860
▁टस	-9861
खाने	-9862
म्मे	-9863
र्दन	-9864
▁हिरासतमा	-9865
▁राष्ट्रपतिले	-9866
▁सबल	-9867
▁तिहाइ	-9868
▁बुझेको	-9869
▁बोलपत्र	-9870
▁ब्राण्ड	-9871
▁नजिकि	-9872
▁पुस्तकमा	-9873
▁शेर्पाले	-9874
▁प्रत्यारोपण	-9875
ञ्चोक	-9876
▁दुर्इ	-9877
▁ब्यान	-9878
▁तराईमा	-9879
▁८९	-9880
तारा	-9881
साहित्य	-9882
▁प्रयो	-9883
▁उम्मेदवारको	-9884
▁शरीरलाई	-9885
▁किम	-9886
▁गरेकै	-9887
▁भइसक्यो	-9888
शीको	-9889
अधिका	-9890
▁थुनामा	-9891
▁पंक्ति	-9892
▁जसमध्ये	-9893
▁&	-9894
समी	-9895
▁सक्यो	-9896
▁भक्तपुरको	-9897
▁व्यवसायीलाई	-9898
▁खड्ग	-9899
▁चाहिएको	-9900
▁कार्यसम्	-9901
▁राख्नुपर्ने	-9902
माई	-9903
▁डोज	-9904
▁न्यायको	-9905
▁मस्	-9906
▁पालामा	-9907
▁फर्किने	-9908
▁सन्तुलित	-9909
▁प्रतियोगी	-9910
▁चाहा	-9911
▁बुद्धको	-9912
▁भरपर्दो	-9913
▁गर्भपत	-9914
▁फुटबलमा	-9915
▁गर्दैछन्	-9916
▁न्यूयोर्क	-9917
▁प्रक्रियालाई	-9918
▁न्युन	-9919
▁हुँदो	-9920
▁युवाहरु	-9921
▁पासपोर्ट	-9922
▁स्थापनाको	-9923
▁निष्कर्षमा	-9924
▁रनमा	-9925
स्कृति	-9926
▁दिंदै	-9927
▁फ्यान	-9928
▁स्मार	-9929
▁श्रेष्ठलाई	-9930
▁स्वाभि	-9931
▁संरक्षणमा	-9932
▁व्यवस्थालाई	-9933
निय	-9934
सभापति	-9935
ुश	-9936
▁सुकु	-9937
▁बनेपा	-9938
▁कार्यकर्ताले	-9939
▁बृ	-9940
▁जिवन	-9941
▁आसपासका	-9942
अगाडि	-9943
ज्ञात	-9944
▁विकट	-9945
प्रेस	-9946
▁नियमा	-9947
▁भात	-9948
▁कार्यलय	-9949
सुल	-9950
र्था	-9951
▁अनुभ	-9952
▁स्थानको	-9953
▁उद्योगले	-9954
▁ओसार	-9955
▁गहुँ	-9956
▁भर्न	-9957
▁एसएलसी	-9958
▁बनाउनुपर्छ	-9959
▁थपे	-9960
▁जानकी	-9961
▁तिर्ने	-9962
▁देवकोटाको	-9963
खमा	-9964
▁बहा	-9965
▁ल्याए	-9966
▁खानेपानीको	-9967
▁4	-9968
▁करार	-9969
▁निष्काश	-9970
▁पाप	-9971
▁दुवैको	-9972
▁देखिएन	-9973
कोटमा	-9974
▁गरिमा	-9975
खुवासभा	-9976
म्न	-9977
▁नजिकैको	-9978
▁हिमालयन	-9979
▁घे	-9980
▁पत्या	-9981
कड	-9982
शमशेर	-9983
▁तीजको	-9984
▁वञ्चित	-9985
▁असहज	-9986
▁दायरा	-9987
▁स्थानबाट	-9988
▁गुरुयोजना	-9989
▁दिउ	-9990
▁बोध	-9991
सभामा	-9992
▁सभाका	-9993
▁स्वास्थ	-9994
▁राख्छ	-9995
▁पढाउने	-9996
▁सम्पर्कमा	-9997
▁पित	-9998
▁सक्छु	-9999
▁पानीले	-10000
दैछ	-10001
▁जहिले	-10002
▁लाग्दै	-10003
ल्टी	-10004
▁देशै	-10005
▁नआएको	-10006
▁मार्न	-10007
▁गैँ	-10008
▁हुर्क	-10009
▁खर्चको	-10010
▁महाप्र	-10011
▁साह्रै	-10012
▁मृत्युको	-10013
▁सुख्	-10014
▁आईतबार	-10015
▁एम्बुलेन्स	-10016
▁महानगरपालिकाले	-10017
▁सहन	-10018
▁नसकिएको	-10019
गंज	-10020
लाय	-10021
च्छे	-10022
ड्को	-10023
याधि	-10024
प्रथम	-10025
▁पुनराव	-10026
▁अनुहारमा	-10027
▁ओर्	-10028
ात्मक	-10029
▁डिएसपी	-10030
▁सयभन्दा	-10031
न्जा	-10032
ग्रहण	-10033
▁दाना	-10034
अनुरूप	-10035
▁बराबरीमा	-10036
▁अन्तरराष्ट्रिय	-10037
▁जिप	-10038
▁घटनालाई	-10039
▁विवादित	-10040
▁कालोपत्रे	-10041
्याएर	-10042
▁अर्घा	-10043
▁दुर्भाग्य	-10044
न्दर	-10045
▁सिकाइ	-10046
ण्डि	-10047
▁गैरकानुनी	-10048
▁पिउने	-10049
▁रूपैयाँ	-10050
▁जङ्ग	-10051
▁शिल्	-10052
▁डेभलप	-10053
ष्टिय	-10054
्ट	-10055
▁चितवनका	-10056
▁कार्यकर्तालाई	-10057
▁विश्वविद्यालयको	-10058
्वल	-10059
क्र्या	-10060
▁पर्नु	-10061
▁वनस्पति	-10062
▁तिर्नुपर्ने	-10063
जहा	-10064
▁मारिएका	-10065
▁काउन्सिल	-10066
▁पत्रिकामा	-10067
▁आँग	-10068
▁रोय	-10069
▁वल्	-10070
▁आन्दोलनलाई	-10071
▁रुपैयाँसम्म	-10072
डेट	-10073
▁बच्न	-10074
▁उपकुलपति	-10075
▁प्रसाई	-10076
▁बर्षा	-10077
▁भेगमा	-10078
▁मज्	-10079
▁सार्थक	-10080
▁वातावरणीय	-10081
▁मिच	-10082
न्समा	-10083
▁भोजन	-10084
▁मिलाउने	-10085
▁विमल	-10086
▁पाइलट	-10087
▁निद्रा	-10088
लिखित	-10089
वासमा	-10090
▁भएता	-10091
▁तुलनात्मक	-10092
▁th	-10093
▁खुम्	-10094
▁ख्या	-10095
▁तहलाई	-10096
▁ब्यापार	-10097
▁दिइरहेका	-10098
▁जनकपुरधाम	-10099
▁थन्	-10100
म्बरमा	-10101
▁राजदु	-10102
▁गाडीको	-10103
मानी	-10104
▁मिठो	-10105
▁प्रगतिशील	-10106
इस	-10107
▁उम्	-10108
▁बितरण	-10109
▁फुर्	-10110
▁उठ्ने	-10111
▁मोहम्मद	-10112
▁रंगशालामा	-10113
ूँ	-10114
क्रि	-10115
▁उप्रेत	-10116
▁व्यक्तिहरु	-10117
▁उकालो	-10118
▁बहानामा	-10119
▁विरुद्धमा	-10120
▁डेमो	-10121
▁रायमा	-10122
क्षिप्त	-10123
जेता	-10124
प्रे	-10125
क्तिक	-10126
▁उल्लंघन	-10127
▁स्मार्टफोन	-10128
▁नेपालीहरुले	-10129
▁आँसु	-10130
▁आपरा	-10131
▁त्रास	-10132
▁निजगढ	-10133
ज्जत	-10134
▁कोहि	-10135
▁चेली	-10136
▁भरो	-10137
▁ताजा	-10138
▁पोशा	-10139
▁समस्याले	-10140
ov	-10141
▁वना	-10142
▁पाउनुपर्ने	-10143
दिक	-10144
सरको	-10145
▁दूरी	-10146
क्रमित	-10147
▁ज्याला	-10148
▁लापरबाही	-10149
▁समस्याका	-10150
ome	-10151
ोलमा	-10152
▁डिफ	-10153
▁लुका	-10154
▁काठमाण्डौं	-10155
स्म	-10156
▁९७	-10157
▁तामाको	-10158
▁भिडन्त	-10159
os	-10160
▁अधिकारका	-10161
मिल	-10162
▁मणि	-10163
▁घरदै	-10164
▁बाणिज्य	-10165
टप	-10166
▁कोण	-10167
▁ख्री	-10168
▁निवेद	-10169
▁माग्न	-10170
▁महराले	-10171
▁हाम्रै	-10172
▁लाम	-10173
▁कसलाई	-10174
▁नहोला	-10175
▁फौजदारी	-10176
तिले	-10177
▁आरा	-10178
▁जीप	-10179
▁कँडेल	-10180
▁फारम	-10181
▁सिकार	-10182
▁पत्रपत्रिका	-10183
▁5	-10184
▁साग	-10185
▁क्यानडा	-10186
!!	-10187
▁एपी	-10188
▁सुस्त	-10189
▁छापिएको	-10190
▁रेडक्र	-10191
▁आइसकेको	-10192
▁प्रबन्धक	-10193
▁मन्त्रीले	-10194
▁चर्	-10195
▁सङ्गठ	-10196
▁धर्मावल	-10197
्‍	-10198
▁लय	-10199
▁अज्ञात	-10200
ोस	-10201
बोध	-10202
ल्दा	-10203
वनमा	-10204
बाँकी	-10205
▁उल्टो	-10206
▁सूत्र	-10207
▁आचारसंहिता	-10208
▁छुट्टाछुट्टै	-10209
ौता	-10210
▁मिथि	-10211
▁उपसचिव	-10212
▁एप्प	-10213
▁भगवती	-10214
▁सञ्चालनको	-10215
▁दलीय	-10216
▁मागेको	-10217
▁सुचारु	-10218
▁अर्घाखा	-10219
▁पुरुषले	-10220
▁गर्दैनन्	-10221
▁प्रतिष्ठानका	-10222
▁ढल	-10223
▁अविर	-10224
्यौँ	-10225
▁द्रु	-10226
▁लम्ब	-10227
▁अपिल	-10228
▁पाखा	-10229
४०	-10230
्थे	-10231
सक्नु	-10232
▁भन्थे	-10233
▁सकिएन	-10234
▁कैलालीको	-10235
▁उमेश	-10236
▁दिनमै	-10237
▁चारवटा	-10238
▁उनीहरूका	-10239
▁नसु	-10240
▁उग्र	-10241
▁उपाध्याय	-10242
▁नसकेर	-10243
▁त्यसैको	-10244
▁लागिरहेको	-10245
कित	-10246
र्जि	-10247
▁ईन्	-10248
▁लहान	-10249
▁आचार्यको	-10250
▁कालीगण्डकी	-10251
▁अर्थतन्त्रमा	-10252
▁बाद	-10253
ेन्डर	-10254
▁संसारभर	-10255
संख्यक	-10256
▁न्यायपालिका	-10257
▁ड्र	-10258
▁सपथ	-10259
▁बदलि	-10260
▁फोनमा	-10261
▁सहाय	-10262
▁खानपान	-10263
▁बढाउनु	-10264
शास्त्री	-10265
▁V	-10266
▁खस्	-10267
▁अष्ट	-10268
▁रोगी	-10269
▁प्राइ	-10270
▁शाखाको	-10271
▁विरुद्धको	-10272
▁शायद	-10273
▁इजराय	-10274
▁जबर्जस्ती	-10275
▁श्रीकृष्ण	-10276
▁घुम	-10277
▁टोकियो	-10278
▁पालिका	-10279
▁दिइरहेको	-10280
▁प्रतिष्ठा	-10281
नान	-10282
▁थलो	-10283
▁टुङ्गो	-10284
▁स्वास्थ्यकर्मी	-10285
पूजा	-10286
▁गहि	-10287
▁मेगावाटको	-10288
र्सले	-10289
▁लामाको	-10290
आफ्नै	-10291
▁पितृ	-10292
▁मिलि	-10293
▁दललाई	-10294
▁भाँडा	-10295
▁संयोग	-10296
▁एसोसिएसन	-10297
▁मनोविज्ञान	-10298
हुँदैन	-10299
ण्य	-10300
▁खोलाको	-10301
▁दोहोरि	-10302
▁मुटुको	-10303
▁सम्बन्धको	-10304
राहा	-10305
ियन्स	-10306
▁वैधानिक	-10307
पुरी	-10308
▁झैँ	-10309
▁असाध्य	-10310
▁फाइनान्स	-10311
▁उद्देश्यका	-10312
▁महत्वपुर्ण	-10313
art	-10314
▁नजा	-10315
वालले	-10316
▁रामा	-10317
▁विमोचन	-10318
▁भूकम्पको	-10319
▁उपस्थितिमा	-10320
ङ्कर	-10321
भिडियो	-10322
▁जवाफदे	-10323
▁आपराधिक	-10324
▁वर्णन	-10325
▁मिलियन	-10326
▁विषयगत	-10327
▁सर्वसाधारणलाई	-10328
▁अश्	-10329
▁रायमाझ	-10330
ेडि	-10331
▁ग्राहकले	-10332
▁निर्णयमा	-10333
ab	-10334
ुत	-10335
केर	-10336
ग्न	-10337
पिङ	-10338
राउने	-10339
▁रौतहट	-10340
▁दैनिकी	-10341
▁निगमको	-10342
अनुसारको	-10343
▁चितवनमा	-10344
भण्ड	-10345
▁कैदी	-10346
▁खुल्ने	-10347
▁एशियाली	-10348
▁चिकित्सकले	-10349
▁अर्थतन्त्रको	-10350
समु	-10351
▁पलायन	-10352
▁लिगको	-10353
▁जमिनमा	-10354
ड्यन्त्र	-10355
▁बेरोजगार	-10356
▁महशुस	-10357
▁पर्यटनको	-10358
▁उन्नत	-10359
▁बाहिरबाट	-10360
▁गहन	-10361
पीए	-10362
िनमा	-10363
▁३००	-10364
▁मन्त्रीको	-10365
▁ब्रेक	-10366
▁सम्मका	-10367
▁साउथ	-10368
रिक्षक	-10369
▁तिरेर	-10370
▁सांसदले	-10371
▁तातोपानी	-10372
▁नियन्त्रणका	-10373
सां	-10374
▁पढौ	-10375
▁झरेको	-10376
▁बेचबि	-10377
▁मालपोत	-10378
▁स्थिरता	-10379
▁प्रतिद्व	-10380
▁तेह्रथु	-10381
▁वर्षयता	-10382
▁महाभूकम्प	-10383
▁सुह	-10384
▁टोपी	-10385
▁दस्तावेज	-10386
▁तम	-10387
▁अजय	-10388
▁१५०	-10389
▁प्रजन	-10390
त्रै	-10391
▁कैलाश	-10392
▁परिभाषा	-10393
▁लगानीका	-10394
▁हेलिकोप्टर	-10395
जाजत	-10396
▁अनी	-10397
▁पम्प	-10398
▁प्याले	-10399
▁बजेतिर	-10400
▁झल	-10401
▁ज्यू	-10402
▁क्लिक	-10403
▁रिजाल	-10404
▁कल्	-10405
▁डेब	-10406
ग्लिन	-10407
न्वित	-10408
▁आँट	-10409
▁कारक	-10410
▁नजिकको	-10411
▁कहीँ	-10412
▁गोलले	-10413
सम्पन्न	-10414
▁युवाले	-10415
▁संचालित	-10416
पोर्	-10417
▁हरित	-10418
यात्री	-10419
▁पेनाल्टी	-10420
सेक	-10421
र्निया	-10422
▁महोत्सवको	-10423
साको	-10424
▁नाति	-10425
▁गीतहरु	-10426
▁जन्मदिन	-10427
▁चाउ	-10428
कारिता	-10429
ूको	-10430
भास	-10431
म्स्टेक	-10432
▁खटिएको	-10433
म्भु	-10434
▁रोब	-10435
मेण्ट	-10436
▁झ्याल	-10437
▁मजबुत	-10438
▁उप्रेती	-10439
▁बताउँछिन्	-10440
▁पुस्तकालय	-10441
त्विक	-10442
▁क्ला	-10443
▁अब्बल	-10444
▁खोजेका	-10445
▁बेलाबेला	-10446
बारीमा	-10447
▁भेटेर	-10448
▁क्वाटर	-10449
▁त्रुटि	-10450
▁हेटौँडा	-10451
▁गाउपालिका	-10452
र्धन	-10453
▁उठ्न	-10454
▁धोका	-10455
▁रक्तचाप	-10456
सभ	-10457
▁जगे	-10458
▁माफी	-10459
▁स्वरोज	-10460
उनी	-10461
▁अलै	-10462
▁उचाइमा	-10463
▁अङ्ग्रेजी	-10464
नर	-10465
गुरु	-10466
▁धाम	-10467
पार्	-10468
▁इतिहासको	-10469
उहाँ	-10470
कलमा	-10471
▁शोध	-10472
र्टमा	-10473
▁दूरस	-10474
▁तिमिल्	-10475
▁षड्यन्त्र	-10476
तीका	-10477
▁लगन	-10478
ँदैनन्	-10479
▁उल्टै	-10480
▁छाडेको	-10481
▁वर्षिय	-10482
▁रक्तदान	-10483
▁पशुपतिनाथ	-10484
▁झन्झ	-10485
▁इजलासले	-10486
▁आक्रमणमा	-10487
्द	-10488
▁टंक	-10489
▁समित	-10490
▁नर्सिङ	-10491
▁सुख्खा	-10492
▁विश्लेषक	-10493
▁मम	-10494
▁कसको	-10495
▁फस्ट	-10496
▁मोर्चाका	-10497
ip	-10498
घाती	-10499
रात्र	-10500
▁गुगल	-10501
▁अनुपा	-10502
▁लड्ने	-10503
▁असम्भव	-10504
▁रहेकोमा	-10505
पहिले	-10506
▁कडाइ	-10507
▁लडाइँ	-10508
▁सौर्य	-10509
▁हाफमा	-10510
▁शाक्यले	-10511
▁मोर्चाको	-10512
वश	-10513
मानको	-10514
▁उद्दार	-10515
▁?”	-10516
ेश्य	-10517
▁ओझा	-10518
▁ट्रेलर	-10519
ेटिभ	-10520
विरोधी	-10521
▁पार्छ	-10522
▁मानिसमा	-10523
▁सल्	-10524
▁विष्	-10525
▁आर्मी	-10526
▁संकल्प	-10527
▁मिल्नेछ	-10528
▁अव्य	-10529
▁न्यानो	-10530
▁बादल	-10531
जंग	-10532
फेर	-10533
नियम	-10534
▁चुनि	-10535
▁गाईको	-10536
▁वामदेव	-10537
▁त्यसअघि	-10538
▁चिकित्सकको	-10539
▁इन्डोनेसिया	-10540
▁तम्	-10541
्नुभएको	-10542
▁फड्को	-10543
▁आफैँले	-10544
▁नेविसंघ	-10545
▁देखे	-10546
▁सम्बन्धन	-10547
▁सान्दर्भिक	-10548
▁मलाइ	-10549
▁पदबाट	-10550
▁फुर्सद	-10551
▁सभासद्	-10552
▁मद	-10553
▁आचरण	-10554
▁सिड्	-10555
▁हिम्म	-10556
▁देखेका	-10557
▁बुझेका	-10558
▁शिक्षकले	-10559
राखेको	-10560
▁प्रतिशतमा	-10561
▁अनुसन्धानको	-10562
हट	-10563
ंको	-10564
▁टुट	-10565
▁हमला	-10566
▁हुँदैनन्	-10567
गाँ	-10568
▁खुल्न	-10569
▁शिक्षाका	-10570
२३	-10571
मतो	-10572
▁कैयौं	-10573
▁मोरङको	-10574
चमा	-10575
िले	-10576
▁लभ	-10577
म्ने	-10578
▁निगम	-10579
▁स्नातको	-10580
र्षिकोत्सव	-10581
▁म्याग्दीको	-10582
र्मो	-10583
▁चौडा	-10584
▁प्रेमको	-10585
▁यसबाहेक	-10586
▁दूरसञ्चार	-10587
▁बोले	-10588
▁असमान	-10589
▁तीनजना	-10590
▁मामिलामा	-10591
▁फ्लो	-10592
नात्मक	-10593
▁लडाकु	-10594
भरा	-10595
०७५	-10596
ट्री	-10597
▁Com	-10598
रक्षा	-10599
▁लमजु	-10600
▁बाल्य	-10601
▁डुबानमा	-10602
▁पोखराका	-10603
▁साथीभाइ	-10604
▁नेताहरूको	-10605
न्ना	-10606
▁कोटा	-10607
▁भूमिमा	-10608
डाम	-10609
▁बुझ्नु	-10610
▁सुनेको	-10611
▁महिलाका	-10612
▁सचिवालयले	-10613
ग्य	-10614
▁ज्योतिष	-10615
▁पार्किङ	-10616
▁महत्वका	-10617
▁नख	-10618
▁महत	-10619
▁कोलम्ब	-10620
▁y	-10621
ort	-10622
▁खाँ	-10623
▁गोठ	-10624
▁बाध	-10625
▁१९५	-10626
▁युवक	-10627
▁काट्न	-10628
▁लागेन	-10629
▁हुनुभयो	-10630
भुत	-10631
▁म्यू	-10632
▁दीपेन्द्र	-10633
बिधि	-10634
मीका	-10635
राका	-10636
▁नक्	-10637
▁सुन्दरी	-10638
▁मिन	-10639
▁गीता	-10640
▁सुखद	-10641
▁पाँचथर	-10642
▁सङ्केत	-10643
▁सङ्क्रमण	-10644
▁बसी	-10645
क्समा	-10646
▁दशकमा	-10647
▁सोच्न	-10648
▁परिस्थितिमा	-10649
▁स्थाना	-10650
▁उठाइ	-10651
▁एभरेष्ट	-10652
▁निष्कासन	-10653
▁सङ्ख्यामा	-10654
बिक	-10655
म्र	-10656
डेको	-10657
▁गैंडा	-10658
▁प्रकृतिका	-10659
▁प्लास्टिक	-10660
▁हिँड्ने	-10661
▁उडा	-10662
▁करणी	-10663
▁मनको	-10664
▁अखण्ड	-10665
▁गोलको	-10666
▁निर्दोष	-10667
▁द्विपक्षीय	-10668
▁बडी	-10669
▁उपलव्	-10670
▁साँचो	-10671
▁नीतिको	-10672
▁मन्त्रालयलाई	-10673
▁बर्से	-10674
▁अध्ययनमा	-10675
अमेर	-10676
▁अनन्त	-10677
▁रिक्त	-10678
▁अनुपात	-10679
▁लाइनमा	-10680
▁गुमाएको	-10681
▁उत्रिएका	-10682
सायनिक	-10683
पथ्र्यो	-10684
▁ढाका	-10685
सनले	-10686
▁फस्	-10687
▁हैर	-10688
▁२०१९	-10689
हेरी	-10690
▁वाई	-10691
▁अर्पण	-10692
▁तिब्बत	-10693
um	-10694
ट्य	-10695
▁खोजे	-10696
म्बो	-10697
▁गणित	-10698
▁केसीलाई	-10699
▁गर्नसक्ने	-10700
▁पुर्‍याएको	-10701
▁बोलि	-10702
▁एजेन्ट	-10703
▁गुम्बा	-10704
▁उनीहरुका	-10705
▁वडाका	-10706
▁बोर्डको	-10707
शय	-10708
विदेश	-10709
▁निम्तो	-10710
▁सेनामा	-10711
▁जाजरकोट	-10712
▁निर्देशनालय	-10713
ारीले	-10714
▁कोशि	-10715
▁	-10716
ा	-10717
्	-10718
र	-10719
न	-10720
क	-10721
ि	-10722
े	-10723
म	-10724
स	-10725
ल	-10726
ो	-10727
त	-10728
प	-10729
य	-10730
ु	-10731
ह	-10732
ी	-10733
ग	-10734
व	-10735
द	-10736
ब	-10737
ज	-10738
भ	-10739
।	-10740
छ	-10741
ए	-10742
ट	-10743
ै	-10744
उ	-10745
अ	-10746
थ	-10747
श	-10748
च	-10749
ध	-10750
ष	-10751
ख	-10752
ड	-10753
,	-10754
आ	-10755
ँ	-10756
ं	-10757
ई	-10758
ण	-10759
ू	-10760
फ	-10761
इ	-10762
ठ	-10763
ौ	-10764
घ	-10765
.	-10766
१	-10767
२	-10768
ृ	-10769
०	-10770
ङ	-10771
ढ	-10772
झ	-10773
५	-10774
ञ	-10775
३	-10776
‘	-10777
’	-10778
७	-10779
४	-10780
–	-10781
६	-10782
ओ	-10783
९	-10784
८	-10785
)	-10786
(	-10787
e	-10788
a	-10789
-	-10790
?	-10791
o	-10792
r	-10793
i	-10794
n	-10795
t	-10796
औ	-10797
ः	-10798
'	-10799
“	-10800
s	-10801
:	-10802
l	-10803
”	-10804
/	-10805
m	-10806
d	-10807
‍	-10808
ऐ	-10809
|	-10810
c	-10811
u	-10812
h	-10813
p	-10814
!	-10815
ऊ	-10816
"	-10817
g	-10818
0	-10819
¥	-10820
1	-10821
ऋ	-10822
b	-10823
w	-10824
2	-10825
y	-10826
[	-10827
]	-10828
f	-10829
S	-10830
—	-10831
N	-10832
÷	-10833
R	-10834
k	-10835
A	-10836
v	-10837
P	-10838
C	-10839
T	-10840
M	-10841
I	-10842
;	-10843
о	-10844
D	-10845
E	-10846
3	-10847
5	-10848
8	-10849
7	-10850
4	-10851
B	-10852
O	-10853
а	-10854
е	-10855
и	-10856
H	-10857
_	-10858
9	-10859
L	-10860
6	-10861
F	-10862
н	-10863
т	-10864
»	-10865
G	-10866
&	-10867
V	-10868
़	-10869
с	-10870
р	-10871
j	-10872
%	-10873
K	-10874
U	-10875
z	-10876
x	-10877
W	-10878
л	-10879
в	-10880
к	-10881
«	-10882
м	-10883
J	-10884
д	-10885
q	-10886
п	-10887
Œ	-10888
у	-10889
*	-10890
я	-10891
>	-10892
Y	-10893
ы	-10894
г	-10895
ا	-10896
ì	-10897
б	-10898
+	-10899
ॉ	-10900
•	-10901
=	-10902
ॐ	-10903
\	-10904
ь	-10905
#	-10906
X	-10907
й	-10908
з	-10909
é	-10910
ч	-10911
@	-10912
х	-10913
·	-10914
Z	-10915
ऱ	-10916
<	-10917
ж	-10918
ر	-10919
ل	-10920
$	-10921
→	-10922
†	-10923
Q	-10924
ˆ	-10925
ऽ	-10926
م	-10927
ی	-10928
ن	-10929
و	-10930
ю	-10931
ц	-10932
ä	-10933
э	-10934
á	-10935
ॅ	-10936
ت	-10937
、	-10938
の	-10939
{	-10940
的	-10941
ш	-10942
。	-10943
ü	-10944
}	-10945
د	-10946
―	-10947
œ	-10948
ب	-10949
ö	-10950
ı	-10951
í	-10952
̧	-10953
س	-10954
ي	-10955
~	-10956
⁄	-10957
щ	-10958
́	-10959
←	-10960
à	-10961
ه	-10962
В	-10963
ф	-10964
し	-10965
С	-10966
ó	-10967
	-10968
П	-10969
า	-10970
た	-10971
で	-10972
°	-10973
に	-10974
å	-10975
い	-10976
ک	-10977
К	-10978
年	-10979
Р	-10980
ç	-10981
ー	-10982
А	-10983
О	-10984
‚	-10985
な	-10986
を	-10987
て	-10988
¬	-10989
›	-10990
Н	-10991
す	-10992
が	-10993
ع	-10994
া	-10995
月	-10996
і	-10997
М	-10998
­	-10999
น	-11000
と	-11001
॰	-11002
ま	-11003
ऑ	-11004
ॊ	-11005
`	-11006
่	-11007
は	-11008
る	-11009
£	-11010
॥	-11011
ش	-11012
ş	-11013
一	-11014
円	-11015
И	-11016
̈	-11017
ง	-11018
	-11019
Т	-11020
อ	-11021
ে	-11022
万	-11023
ン	-11024
Þ	-11025
ف	-11026
è	-11027
	-11028
ย	-11029
α	-11030
ق	-11031
้	-11032
か	-11033
ο	-11034
ॠ	-11035
ร	-11036
′	-11037
ม	-11038
了	-11039
ة	-11040
เ	-11041
是	-11042
്	-11043
ˈ	-11044
日	-11045
ə	-11046
ł	-11047
র	-11048
ก	-11049
¤	-11050
Д	-11051
ั	-11052
・	-11053
人	-11054
ج	-11055
り	-11056
ү	-11057
名	-11058
↑	-11059
も	-11060
ح	-11061
ト	-11062
ę	-11063
ら	-11064
ス	-11065
ด	-11066
れ	-11067
中	-11068
ê	-11069
ล	-11070
	-11071
π	-11072
Г	-11073
ন	-11074
®	-11075
ز	-11076
ą	-11077
У	-11078
ท	-11079
在	-11080
不	-11081
Б	-11082
っ	-11083
ี	-11084
×	-11085
ι	-11086
ิ	-11087
ہ	-11088
บ	-11089
ส	-11090
€	-11091
ว	-11092
「	-11093
č	-11094
κ	-11095
خ	-11096
」	-11097
お	-11098
Е	-11099
大	-11100
有	-11101
τ	-11102
گ	-11103
ε	-11104
イ	-11105
Л	-11106
্	-11107
©	-11108
ん	-11109
事	-11110
ž	-11111
ค	-11112
う	-11113
З	-11114
ळ	-11115
ú	-11116
ห	-11117
ា	-11118
│	-11119
あ	-11120
ν	-11121
پ	-11122
く	-11123
会	-11124
ص	-11125
さ	-11126
坪	-11127
ğ	-11128
ے	-11129
ॆ	-11130
上	-11131
ś	-11132
្	-11133
♦	-11134
我	-11135
生	-11136
Ç	-11137
ż	-11138
≈	-11139
ã	-11140
ø	-11141
ك	-11142
ː	-11143
ө	-11144
ऩ	-11145
λ	-11146
用	-11147
ě	-11148
ব	-11149
	-11150
ô	-11151
ý	-11152
σ	-11153
ต	-11154
这	-11155
š	-11156
ত	-11157
จ	-11158
个	-11159
រ	-11160
こ	-11161
ル	-11162
本	-11163
国	-11164
	-11165
đ	-11166
ʻ	-11167
ি	-11168
き	-11169
だ	-11170
行	-11171
ß	-11172
ʼ	-11173
ρ	-11174
ุ	-11175
《	-11176
者	-11177
̊	-11178
ё	-11179
ল	-11180
ป	-11181
แ	-11182
》	-11183
和	-11184
ক	-11185
ッ	-11186
ط	-11187
ऎ	-11188
Ï	-11189
â	-11190
μ	-11191
ി	-11192
‪	-11193
ā	-11194
η	-11195
י	-11196
พ	-11197
到	-11198
ñ	-11199
য	-11200
品	-11201
新	-11202
أ	-11203
∕	-11204
リ	-11205
出	-11206
ř	-11207
،	-11208
方	-11209
県	-11210
自	-11211
ć	-11212
ম	-11213
ข	-11214
ไ	-11215
け	-11216
せ	-11217
シ	-11218
为	-11219
以	-11220
能	-11221
È	-11222
ន	-11223
地	-11224
来	-11225
	-11226
ɪ	-11227
ម	-11228
そ	-11229
ど	-11230
ラ	-11231
们	-11232
家	-11233
Ф	-11234
学	-11235
文	-11236
記	-11237
Э	-11238
め	-11239
分	-11240
安	-11241
成	-11242
要	-11243
●	-11244
件	-11245
▪	-11246
ご	-11247
理	-11248
道	-11249
Û	-11250
ъ	-11251
ア	-11252
你	-11253
画	-11254
面	-11255
	-11256
	-11257
	-11258
‬	-11259
下	-11260
他	-11261
都	-11262
高	-11263
이	-11264
	-11265
👉	-11266
ư	-11267
ς	-11268
স	-11269
ക	-11270
ะ	-11271
ใ	-11272
∙	-11273
え	-11274
可	-11275
时	-11276
	-11277
î	-11278
ئ	-11279
ង	-11280
ち	-11281
サ	-11282
多	-11283
ë	-11284
়	-11285
ស	-11286
フ	-11287
与	-11288
化	-11289
💿	-11290
æ	-11291
Ж	-11292
Ч	-11293
ク	-11294
タ	-11295
体	-11296
全	-11297
প	-11298
็	-11299
‐	-11300
ジ	-11301
也	-11302
心	-11303
দ	-11304
主	-11305
υ	-11306
Я	-11307
ו	-11308
ں	-11309
യ	-11310
【	-11311
】	-11312
つ	-11313
作	-11314
子	-11315
小	-11316
手	-11317
物	-11318
Ε	-11319
Х	-11320
ض	-11321
ാ	-11322
‰	-11323
コ	-11324
使	-11325
明	-11326
解	-11327
Ã	-11328
ί	-11329
ര	-11330
์	-11331
‹	-11332
发	-11333
合	-11334
对	-11335
다	-11336
🙂	-11337
Ô	-11338
ї	-11339
ក	-11340
ế	-11341
„	-11342
テ	-11343
所	-11344
法	-11345
海	-11346
知	-11347
ń	-11348
Ш	-11349
آ	-11350
হ	-11351
ന	-11352
わ	-11353
レ	-11354
内	-11355
放	-11356
最	-11357
相	-11358
	-11359
	-11360
§	-11361
Α	-11362
ু	-11363
よ	-11364
グ	-11365
就	-11366
工	-11367
式	-11368
İ	-11369
ά	-11370
ํ	-11371
ド	-11372
信	-11373
度	-11374
开	-11375
现	-11376
过	-11377
金	-11378
	-11379
ă	-11380
ى	-11381
โ	-11382
ố	-11383
■	-11384
や	-11385
区	-11386
定	-11387
料	-11388
而	-11389
Ö	-11390
õ	-11391
പ	-11392
ื	-11393
デ	-11394
マ	-11395
情	-11396
感	-11397
表	-11398
通	-11399
重	-11400
^	-11401
É	-11402
Ø	-11403
ő	-11404
ר	-11405
ả	-11406
入	-11407
公	-11408
力	-11409
当	-11410
持	-11411
業	-11412
한	-11413
ů	-11414
ɑ	-11415
غ	-11416
ـ	-11417
ٹ	-11418
സ	-11419
ប	-11420
ự	-11421
キ	-11422
ブ	-11423
于	-11424
加	-11425
好	-11426
市	-11427
平	-11428
着	-11429
部	-11430
間	-11431
מ	-11432
ো	-11433
ロ	-11434
业	-11435
关	-11436
其	-11437
北	-11438
外	-11439
天	-11440
实	-11441
意	-11442
机	-11443
無	-11444
特	-11445
目	-11446
系	-11447
限	-11448
Ν	-11449
א	-11450
ছ	-11451
ത	-11452
ត	-11453
ィ	-11454
ウ	-11455
世	-11456
時	-11457
等	-11458
送	-11459
	-11460
Σ	-11461
έ	-11462
ែ	-11463
ạ	-11464
⇒	-11465
プ	-11466
之	-11467
同	-11468
回	-11469
如	-11470
展	-11471
影	-11472
社	-11473
说	-11474
酒	-11475
量	-11476
长	-11477
의	-11478
Ο	-11479
വ	-11480
ു	-11481
ệ	-11482
►	-11483
オ	-11484
チ	-11485
員	-11486
場	-11487
将	-11488
形	-11489
性	-11490
看	-11491
🌹	-11492
👱	-11493
ɛ	-11494
̭	-11495
Ι	-11496
γ	-11497
ל	-11498
ש	-11499
ấ	-11500
‛	-11501
√	-11502
ろ	-11503
ェ	-11504
ネ	-11505
先	-11506
制	-11507
前	-11508
去	-11509
少	-11510
师	-11511
活	-11512
界	-11513
示	-11514
見	-11515
長	-11516
에	-11517
ơ	-11518
ա	-11519
ת	-11520
ھ	-11521
জ	-11522
ട	-11523
ช	-11524
ณ	-11525
−	-11526
エ	-11527
カ	-11528
ム	-11529
ャ	-11530
今	-11531
利	-11532
动	-11533
動	-11534
及	-11535
取	-11536
報	-11537
头	-11538
材	-11539
正	-11540
水	-11541
没	-11542
管	-11543
认	-11544
里	-11545
지	-11546
하	-11547
ð	-11548
Č	-11549
ų	-11550
ɔ	-11551
̃	-11552
Η	-11553
δ	-11554
ό	-11555
Ц	-11556
ն	-11557
ذ	-11558
ច	-11559
✉	-11560
ミ	-11561
光	-11562
口	-11563
告	-11564
她	-11565
广	-11566
店	-11567
得	-11568
摄	-11569
点	-11570
种	-11571
经	-11572
言	-11573
ò	-11574
ʊ	-11575
Τ	-11576
ύ	-11577
ב	-11578
ู	-11579
ộ	-11580
ữ	-11581
ダ	-11582
ビ	-11583
ュ	-11584
三	-11585
两	-11586
产	-11587
做	-11588
因	-11589
思	-11590
教	-11591
更	-11592
期	-11593
术	-11594
气	-11595
注	-11596
素	-11597
開	-11598
间	-11599
는	-11600
시	-11601
β	-11602
গ	-11603
ধ	-11604
റ	-11605
យ	-11606
ល	-11607
ニ	-11608
バ	-11609
何	-11610
商	-11611
已	-11612
常	-11613
想	-11614
族	-11615
样	-11616
次	-11617
求	-11618
発	-11619
西	-11620
起	-11621
香	-11622
駅	-11623
기	-11624
서	-11625
인	-11626
	-11627
¿	-11628
Ü	-11629
Š	-11630
ʃ	-11631
إ	-11632
்	-11633
മ	-11634
ോ	-11635
ắ	-11636
み	-11637
交	-11638
京	-11639
位	-11640
保	-11641
变	-11642
只	-11643
器	-11644
実	-11645
山	-11646
望	-11647
果	-11648
様	-11649
然	-11650
由	-11651
立	-11652
第	-11653
育	-11654
艺	-11655
装	-11656
还	-11657
니	-11658
을	-11659
️	-11660
ș	-11661
Μ	-11662
Π	-11663
ј	-11664
ե	-11665
ր	-11666
ד	-11667
ה	-11668
נ	-11669
ظ	-11670
ॄ	-11671
ല	-11672
ถ	-11673
་	-11674
♥	-11675
び	-11676
へ	-11677
么	-11678
克	-11679
共	-11680
原	-11681
女	-11682
很	-11683
服	-11684
治	-11685
精	-11686
视	-11687
身	-11688
造	-11689
選	-11690
需	-11691
로	-11692
자	-11693
	-11694
±	-11695
ù	-11696
ū	-11697
Φ	-11698
ω	-11699
ם	-11700
ث	-11701
আ	-11702
ট	-11703
ა	-11704
ព	-11705
ុ	-11706
ổ	-11707
ず	-11708
ゃ	-11709
パ	-11710
メ	-11711
企	-11712
众	-11713
元	-11714
十	-11715
各	-11716
后	-11717
向	-11718
喜	-11719
委	-11720
客	-11721
江	-11722
直	-11723
線	-11724
网	-11725
老	-11726
色	-11727
花	-11728
识	-11729
那	-11730
配	-11731
非	-11732
리	-11733
	-11734
	-11735
ŋ	-11736
ɐ	-11737
ˌ	-11738
ҳ	-11739
چ	-11740
ॢ	-11741
ึ	-11742
ე	-11743
ი	-11744
ដ	-11745
់	-11746
ề	-11747
ớ	-11748
ợ	-11749
‣	-11750
♠	-11751
✊	-11752
✓	-11753
じ	-11754
ょ	-11755
セ	-11756
ョ	-11757
东	-11758
什	-11759
介	-11760
医	-11761
台	-11762
室	-11763
川	-11764
彩	-11765
指	-11766
接	-11767
支	-11768
政	-11769
整	-11770
模	-11771
此	-11772
民	-11773
気	-11774
灯	-11775
真	-11776
福	-11777
题	-11778
食	-11779
가	-11780
사	-11781
어	-11782
	-11783
￼	-11784
¡	-11785
Đ	-11786
ė	-11787
Ş	-11788
ή	-11789
ո	-11790
ء	-11791
ऒ	-11792
ર	-11793
ા	-11794
ฟ	-11795
ជ	-11796
ទ	-11797
ិ	-11798
េ	-11799
☆	-11800
ば	-11801
ペ	-11802
些	-11803
从	-11804
别	-11805
務	-11806
半	-11807
又	-11808
古	-11809
尔	-11810
州	-11811
并	-11812
建	-11813
或	-11814
技	-11815
改	-11816
暗	-11817
東	-11818
案	-11819
照	-11820
白	-11821
粒	-11822
経	-11823
結	-11824
被	-11825
語	-11826
象	-11827
順	-11828
스	-11829
	-11830
😂	-11831
😉	-11832
Ä	-11833
ï	-11834
ĩ	-11835
Κ	-11836
Υ	-11837
ξ	-11838
Й	-11839
ח	-11840
ע	-11841
ק	-11842
ং	-11843
ও	-11844
থ	-11845
শ	-11846
െ	-11847
ს	-11848
ể	-11849
∞	-11850
ぐ	-11851
ふ	-11852
ォ	-11853
ケ	-11854
ナ	-11855
ハ	-11856
ベ	-11857
二	-11858
低	-11859
南	-11860
完	-11861
対	-11862
属	-11863
必	-11864
断	-11865
无	-11866
流	-11867
港	-11868
状	-11869
疗	-11870
療	-11871
神	-11872
绘	-11873
美	-11874
群	-11875
考	-11876
落	-11877
设	-11878
走	-11879
速	-11880
野	-11881
関	-11882
问	-11883
验	-11884
노	-11885
해	-11886
	-11887
􀇓	-11888
Ó	-11889
θ	-11890
Ю	-11891
ә	-11892
ം	-11893
ซ	-11894
ី	-11895
ូ	-11896
ủ	-11897
※	-11898
≤	-11899
★	-11900
々	-11901
严	-11902
修	-11903
务	-11904
受	-11905
司	-11906
场	-11907
存	-11908
希	-11909
康	-11910
復	-11911
打	-11912
数	-11913
某	-11914
格	-11915
片	-11916
箱	-11917
粕	-11918
至	-11919
观	-11920
近	-11921
进	-11922
際	-11923
동	-11924
를	-11925
원	-11926
일	-11927
회	-11928
	-11929
	-11930
😀	-11931
􀇑	-11932
􀉍	-11933
є	-11934
ִ	-11935
ॽ	-11936
ച	-11937
າ	-11938
វ	-11939
ậ	-11940
♪	-11941
ザ	-11942
ズ	-11943
ポ	-11944
供	-11945
像	-11946
兴	-11947
具	-11948
参	-11949
周	-11950
土	-11951
型	-11952
城	-11953
基	-11954
处	-11955
官	-11956
富	-11957
差	-11958
推	-11959
朝	-11960
機	-11961
消	-11962
為	-11963
現	-11964
球	-11965
移	-11966
組	-11967
認	-11968
车	-11969
透	-11970
门	-11971
院	-11972
題	-11973
업	-11974
👤	-11975
🙏	-11976
¢	-11977
Â	-11978
ī	-11979
ō	-11980
˗	-11981
Ρ	-11982
φ	-11983
χ	-11984
ώ	-11985
Ы	-11986
ӈ	-11987
ի	-11988
સ	-11989
્	-11990
த	-11991
അ	-11992
ഫ	-11993
ภ	-11994
ར	-11995
რ	-11996
ខ	-11997
ọ	-11998
ờ	-11999
⋲	-12000
ァ	-12001
乐	-12002
互	-12003
代	-12004
但	-12005
住	-12006
候	-12007
准	-12008
切	-12009
华	-12010
吧	-12011
売	-12012
奈	-12013
始	-12014
婚	-12015
它	-12016
宝	-12017
屋	-12018
己	-12019
布	-12020
後	-12021
応	-12022
念	-12023
愛	-12024
房	-12025
收	-12026
条	-12027
构	-12028
根	-12029
深	-12030
火	-12031
爱	-12032
田	-12033
番	-12034
百	-12035
眼	-12036
站	-12037
策	-12038
紹	-12039
维	-12040
習	-12041
联	-12042
蔵	-12043
觉	-12044
設	-12045
证	-12046
试	-12047
贫	-12048
轻	-12049
除	-12050
领	-12051
국	-12052
문	-12053
부	-12054
아	-12055
여	-12056
주	-12057
통	-12058
Ý	-12059
Ÿ	-12060
ɡ	-12061
ҷ	-12062
կ	-12063
כ	-12064
ڈ	-12065
॔	-12066
ঘ	-12067
ড	-12068
ு	-12069
ญ	-12070
ศ	-12071
ო	-12072
ថ	-12073
ំ	-12074
ầ	-12075
ồ	-12076
♣	-12077
⟲	-12078
ガ	-12079
ノ	-12080
任	-12081
例	-12082
個	-12083
健	-12084
儿	-12085
典	-12086
办	-12087
功	-12088
包	-12089
单	-12090
历	-12091
反	-12092
問	-12093
営	-12094
困	-12095
域	-12096
塔	-12097
奖	-12098
季	-12099
宅	-12100
島	-12101
急	-12102
才	-12103
报	-12104
控	-12105
提	-12106
插	-12107
早	-12108
植	-12109
比	-12110
热	-12111
研	-12112
类	-12113
脸	-12114
良	-12115
节	-12116
谜	-12117
豪	-12118
費	-12119
资	-12120
运	-12121
选	-12122
運	-12123
集	-12124
青	-12125
革	-12126
马	-12127
고	-12128
나	-12129
영	-12130
으	-12131
있	-12132
작	-12133
전	-12134
💥	-12135
🔱	-12136
􀀀	-12137
Ë	-12138
ű	-12139
ź	-12140
ț	-12141
Λ	-12142
ט	-12143
ڪ	-12144
ই	-12145
এ	-12146
എ	-12147
ണ	-12148
ഷ	-12149
ഹ	-12150
ธ	-12151
ლ	-12152
ផ	-12153
ើ	-12154
ỉ	-12155
ị	-12156
ừ	-12157
◊	-12158
✋	-12159
⭕	-12160
ぎ	-12161
べ	-12162
ぼ	-12163
ゆ	-12164
专	-12165
伴	-12166
伸	-12167
余	-12168
六	-12169
军	-12170
创	-12171
初	-12172
助	-12173
命	-12174
四	-12175
声	-12176
备	-12177
带	-12178
幅	-12179
应	-12180
座	-12181
志	-12182
战	-12183
户	-12184
把	-12185
排	-12186
施	-12187
旅	-12188
木	-12189
永	-12190
済	-12191
湖	-12192
燚	-12193
版	-12194
王	-12195
産	-12196
电	-12197
男	-12198
病	-12199
皇	-12200
究	-12201
章	-12202
竹	-12203
約	-12204
给	-12205
股	-12206
致	-12207
華	-12208
融	-12209
話	-12210
談	-12211
警	-12212
議	-12213
论	-12214
買	-12215
賀	-12216
車	-12217
込	-12218
進	-12219
過	-12220
难	-12221
電	-12222
體	-12223
黄	-12224
공	-12225
무	-12226
용	-12227
은	-12228
장	-12229
정	-12230
	-12231
	-12232
～	-12233
Ð	-12234
Ñ	-12235
Ú	-12236
ʁ	-12237
Χ	-12238
Ω	-12239
յ	-12240
ւ	-12241
ِ	-12242
ऍ	-12243
উ	-12244
খ	-12245
ভ	-12246
ী	-12247
દ	-12248
ી	-12249
ம	-12250
ி	-12251
ษ	-12252
།	-12253
თ	-12254
គ	-12255
ភ	-12256
ៀ	-12257
ᤠ	-12258
『	-12259
』	-12260
ね	-12261
ワ	-12262
ヶ	-12263
且	-12264
予	-12265
争	-12266
五	-12267
似	-12268
便	-12269
備	-12270
催	-12271
充	-12272
写	-12273
凝	-12274
判	-12275
却	-12276
友	-12277
吗	-12278
味	-12279
团	-12280
均	-12281
士	-12282
変	-12283
复	-12284
失	-12285
奇	-12286
奶	-12287
威	-12288
容	-12289
密	-12290
察	-12291
専	-12292
射	-12293
尼	-12294
広	-12295
庭	-12296
引	-12297
息	-12298
患	-12299
拍	-12300
按	-12301
景	-12302
极	-12303
構	-12304
欢	-12305
段	-12306
温	-12307
源	-12308
猜	-12309
甘	-12310
町	-12311
登	-12312
空	-12313
童	-12314
節	-12315
米	-12316
統	-12317
繁	-12318
红	-12319
线	-12320
续	-12321
脚	-12322
與	-12323
舗	-12324
舟	-12325
苦	-12326
菜	-12327
親	-12328
角	-12329
論	-12330
计	-12331
话	-12332
请	-12333
质	-12334
费	-12335
越	-12336
跟	-12337
路	-12338
转	-12339
较	-12340
追	-12341
連	-12342
遠	-12343
鉄	-12344
霍	-12345
頂	-12346
餐	-12347
首	-12348
게	-12349
네	-12350
대	-12351
도	-12352
디	-12353
상	-12354
성	-12355
소	-12356
습	-12357
제	-12358
터	-12359
트	-12360
화	-12361
	-12362
	-12363
💔	-12364
💘	-12365
	-12366
Æ	-12367
Í	-12368
ɴ	-12369
ʌ	-12370
Δ	-12371
ζ	-12372
І	-12373
Ь	-12374
қ	-12375
լ	-12376
ס	-12377
ٽ	-12378
۰	-12379
ત	-12380
ન	-12381
ನ	-12382
ീ	-12383
ൂ	-12384
ฉ	-12385
ผ	-12386
ི	-12387
ხ	-12388
ួ	-12389
័	-12390
ụ	-12391
‡	-12392
⚠	-12393
✍	-12394
げ	-12395
ホ	-12396
举	-12397
习	-12398
亚	-12399
亡	-12400
亮	-12401
仓	-12402
价	-12403
传	-12404
佐	-12405
借	-12406
八	-12407
冠	-12408
决	-12409
减	-12410
则	-12411
別	-12412
卡	-12413
另	-12414
叶	-12415
岡	-12416
崎	-12417
序	-12418
府	-12419
強	-12420
彼	-12421
待	-12422
德	-12423
您	-12424
戸	-12425
扶	-12426
択	-12427
换	-12428
探	-12429
效	-12430
數	-12431
易	-12432
映	-12433
書	-12434
會	-12435
权	-12436
松	-12437
标	-12438
森	-12439
検	-12440
楽	-12441
橋	-12442
歌	-12443
残	-12444
河	-12445
清	-12446
独	-12447
率	-12448
監	-12449
离	-12450
科	-12451
租	-12452
積	-12453
穿	-12454
简	-12455
築	-12456
細	-12457
經	-12458
続	-12459
総	-12460
纪	-12461
组	-12462
脱	-12463
覇	-12464
覧	-12465
観	-12466
計	-12467
謝	-12468
该	-12469
调	-12470
販	-12471
负	-12472
财	-12473
边	-12474
采	-12475
错	-12476
队	-12477
防	-12478
阿	-12479
階	-12480
額	-12481
館	-12482
駐	-12483
験	-12484
鬼	-12485
금	-12486
년	-12487
단	-12488
당	-12489
들	-12490
런	-12491
명	-12492
방	-12493
수	-12494
신	-12495
양	-12496
위	-12497
재	-12498
적	-12499
코	-12500
티	-12501
포	-12502
활	-12503
	-12504
	-12505
	-12506
🎁	-12507
🏡	-12508
💌	-12509
😊	-12510
􀈣	-12511
	-12512
	-12513
¶	-12514
Á	-12515
Ò	-12516
Ǔ	-12517
ɕ	-12518
ʒ	-12519
Ζ	-12520
ӣ	-12521
Հ	-12522
մ	-12523
վ	-12524
ְ	-12525
ן	-12526
ْ	-12527
ڑ	-12528
অ	-12529
চ	-12530
ষ	-12531
વ	-12532
ે	-12533
ો	-12534
க	-12535
ப	-12536
ர	-12537
್	-12538
ങ	-12539
ഞ	-12540
ฮ	-12541
ๆ	-12542
๊	-12543
ລ	-12544
ວ	-12545
ვ	-12546
უ	-12547
ქ	-12548
ធ	-12549
ះ	-12550
ᤣ	-12551
ṃ	-12552
ṅ	-12553
⁠	-12554
♫	-12555
✌	-12556
ひ	-12557
ほ	-12558
む	-12559
ゴ	-12560
ソ	-12561
丹	-12562
丽	-12563
仕	-12564
付	-12565
令	-12566
休	-12567
來	-12568
価	-12569
促	-12570
們	-12571
倒	-12572
偏	-12573
內	-12574
册	-12575
再	-12576
农	-12577
冬	-12578
况	-12579
刮	-12580
副	-12581
創	-12582
効	-12583
即	-12584
収	-12585
史	-12586
号	-12587
吉	-12588
含	-12589
善	-12590
嘴	-12591
图	-12592
堂	-12593
境	-12594
夏	-12595
契	-12596
姜	-12597
婷	-12598
孔	-12599
字	-12600
宮	-12601
導	-12602
巴	-12603
币	-12604
師	-12605
庄	-12606
底	-12607
张	-12608
往	-12609
微	-12610
恩	-12611
態	-12612
應	-12613
投	-12614
拉	-12615
挑	-12616
授	-12617
描	-12618
散	-12619
既	-12620
智	-12621
暖	-12622
朋	-12623
查	-12624
柯	-12625
概	-12626
步	-12627
死	-12628
母	-12629
毎	-12630
決	-12631
油	-12632
洛	-12633
游	-12634
演	-12635
灵	-12636
熟	-12637
燕	-12638
玉	-12639
环	-12640
略	-12641
疑	-12642
癌	-12643
皮	-12644
盧	-12645
确	-12646
私	-12647
秋	-12648
程	-12649
突	-12650
算	-12651
簡	-12652
糸	-12653
終	-12654
継	-12655
編	-12656
縮	-12657
级	-12658
细	-12659
统	-12660
聞	-12661
興	-12662
英	-12663
获	-12664
葉	-12665
血	-12666
衣	-12667
裔	-12668
规	-12669
診	-12670
試	-12671
課	-12672
让	-12673
记	-12674
賃	-12675
购	-12676
赏	-12677
軽	-12678
載	-12679
遇	-12680
陸	-12681
随	-12682
页	-12683
風	-12684
飞	-12685
駆	-12686
魚	-12687
麗	-12688
꞊	-12689
관	-12690
까	-12691
드	-12692
라	-12693
론	-12694
민	-12695
번	-12696
언	-12697
요	-12698
울	-12699
중	-12700
즣	-12701
차	-12702
천	-12703
출	-12704
프	-12705
합	-12706
	-12707
🇵	-12708
💐	-12709
😡	-12710
🙁	-12711
	-12712
Ù	-12713
Ā	-12714
ũ	-12715
Ž	-12716
Ǒ	-12717
ɍ	-12718
ɒ	-12719
ɾ	-12720
ʺ	-12721
ʽ	-12722
̄	-12723
ӯ	-12724
ս	-12725
տ	-12726
ַ	-12727
ז	-12728
ّ	-12729
ژ	-12730
ۛ	-12731
߮	-12732
ऄ	-12733
ৃ	-12734
ৰ	-12735
ਮ	-12736
ਸ	-12737
ੀ	-12738
ੰ	-12739
અ	-12740
ક	-12741
ફ	-12742
મ	-12743
ட	-12744
ன	-12745
ய	-12746
ா	-12747
ు	-12748
ജ	-12749
ഡ	-12750
ദ	-12751
ബ	-12752
ള	-12753
േ	-12754
ན	-12755
བ	-12756
ཤ	-12757
ས	-12758
ུ	-12759
ྟ	-12760
ာ	-12761
ბ	-12762
ហ	-12763
អ	-12764
ោ	-12765
១	-12766
ặ	-12767
ẽ	-12768
ứ	-12769
ử	-12770
∘	-12771
⟳	-12772
ヤ	-12773
ユ	-12774
丁	-12775
久	-12776
九	-12777
云	-12778
亲	-12779
伝	-12780
依	-12781
值	-12782
养	-12783
几	-12784
列	-12785
刷	-12786
刻	-12787
势	-12788
勉	-12789
募	-12790
升	-12791
単	-12792
危	-12793
叫	-12794
君	-12795
否	-12796
吴	-12797
吸	-12798
员	-12799
啊	-12800
园	-12801
围	-12802
園	-12803
塾	-12804
太	-12805
央	-12806
妻	-12807
宁	-12808
宇	-12809
导	-12810
局	-12811
层	-12812
席	-12813
庆	-12814
弟	-12815
强	-12816
归	-12817
律	-12818
怀	-12819
怕	-12820
总	-12821
愿	-12822
戦	-12823
扱	-12824
护	-12825
抽	-12826
拠	-12827
括	-12828
援	-12829
携	-12830
春	-12831
昭	-12832
显	-12833
未	-12834
村	-12835
杯	-12836
板	-12837
査	-12838
桑	-12839
检	-12840
権	-12841
欺	-12842
歩	-12843
準	-12844
满	-12845
激	-12846
熊	-12847
營	-12848
牌	-12849
甚	-12850
申	-12851
當	-12852
疆	-12853
疾	-12854
痩	-12855
發	-12856
盘	-12857
盛	-12858
睛	-12859
督	-12860
石	-12861
確	-12862
礼	-12863
秀	-12864
称	-12865
税	-12866
索	-12867
紧	-12868
约	-12869
织	-12870
绿	-12871
耐	-12872
肌	-12873
胞	-12874
般	-12875
茶	-12876
营	-12877
著	-12878
葬	-12879
處	-12880
虽	-12881
蛋	-12882
街	-12883
視	-12884
識	-12885
讯	-12886
许	-12887
语	-12888
貸	-12889
質	-12890
贈	-12891
趣	-12892
迅	-12893
迎	-12894
邦	-12895
郎	-12896
銀	-12897
销	-12898
锤	-12899
镜	-12900
阅	-12901
阳	-12902
隐	-12903
隔	-12904
障	-12905
離	-12906
露	-12907
项	-12908
骏	-12909
魅	-12910
黑	-12911
黒	-12912
龙	-12913
간	-12914
감	-12915
건	-12916
경	-12917
과	-12918
능	-12919
면	-12920
모	-12921
살	-12922
세	-12923
액	-12924
연	-12925
오	-12926
좋	-12927
착	-12928
크	-12929
할	-12930
항	-12931
	-12932
🇳	-12933
🎼	-12934
🏼	-12935
🐍	-12936
🐒	-12937
👧	-12938
💕	-12939
😈	-12940
😍	-12941
🚩	-12942
	-12943
À	-12944
Ê	-12945
Î	-12946
Ē	-12947
ē	-12948
Ī	-12949
į	-12950
Ō	-12951
Ś	-12952
ť	-12953
ȣ	-12954
ɣ	-12955
ʔ	-12956
̓	-12957
Θ	-12958
թ	-12959
ց	-12960
פ	-12961
צ	-12962
َ	-12963
ڌ	-12964
ښ	-12965
۳	-12966
ঁ	-12967
ਜ	-12968
ਪ	-12969
ਾ	-12970
ਿ	-12971
લ	-12972
હ	-12973
િ	-12974
ற	-12975
ழ	-12976
வ	-12977
ை	-12978
గ	-12979
త	-12980
ల	-12981
ె	-12982
ಕ	-12983
ಡ	-12984
ഐ	-12985
ഗ	-12986
ഥ	-12987
ഴ	-12988
ശ	-12989
ൈ	-12990
ർ	-12991
ൾ	-12992
ພ	-12993
ສ	-12994
པ	-12995
མ	-12996
ལ	-12997
ེ	-12998
ོ	-12999
კ	-13000
მ	-13001
ნ	-13002
ტ	-13003
ᆬ	-13004
ញ	-13005
ណ	-13006
ឡ	-13007
ឹ	-13008
ៅ	-13009
៊	-13010
ṇ	-13011
ṣ	-13012
ṭ	-13013
ẩ	-13014
ẹ	-13015
ỗ	-13016
ở	-13017
‭	-13018
▼	-13019
◆	-13020
☑	-13021
☺	-13022
♡	-13023
❤	-13024
ざ	-13025
ぞ	-13026
ぶ	-13027
ゼ	-13028
ツ	-13029
ピ	-13030
モ	-13031
丝	-13032
並	-13033
临	-13034
义	-13035
乗	-13036
书	-13037
买	-13038
井	-13039
仪	-13040
佛	-13041
倉	-13042
假	-13043
停	-13044
優	-13045
冷	-13046
凋	-13047
凡	-13048
击	-13049
删	-13050
割	-13051
千	-13052
午	-13053
占	-13054
卫	-13055
厂	-13056
压	-13057
厚	-13058
双	-13059
听	-13060
呢	-13061
呵	-13062
喂	-13063
圈	-13064
圳	-13065
坚	-13066
塑	-13067
增	-13068
壁	-13069
壤	-13070
够	-13071
夫	-13072
奴	-13073
媒	-13074
孤	-13075
守	-13076
宗	-13077
害	-13078
寄	-13079
實	-13080
寺	-13081
寿	-13082
對	-13083
尤	-13084
居	-13085
届	-13086
岁	-13087
岸	-13088
巡	-13089
左	-13090
巧	-13091
帮	-13092
庫	-13093
延	-13094
弁	-13095
弱	-13096
录	-13097
彦	-13098
徽	-13099
快	-13100
怖	-13101
恐	-13102
恒	-13103
悉	-13104
悩	-13105
惑	-13106
慮	-13107
找	-13108
承	-13109
抢	-13110
拔	-13111
拜	-13112
拿	-13113
据	-13114
掌	-13115
採	-13116
措	-13117
播	-13118
敷	-13119
斯	-13120
於	-13121
旋	-13122
星	-13123
晚	-13124
普	-13125
曜	-13126
替	-13127
末	-13128
杀	-13129
杂	-13130
杭	-13131
析	-13132
林	-13133
树	-13134
株	-13135
桌	-13136
標	-13137
止	-13138
武	-13139
歳	-13140
毛	-13141
氏	-13142
汽	-13143
沈	-13144
沙	-13145
沢	-13146
泵	-13147
津	-13148
浙	-13149
液	-13150
混	-13151
渤	-13152
満	-13153
濟	-13154
焼	-13155
父	-13156
牛	-13157
猫	-13158
玩	-13159
環	-13160
瓦	-13161
瓶	-13162
甜	-13163
畑	-13164
異	-13165
疼	-13166
痛	-13167
盐	-13168
短	-13169
破	-13170
硅	-13171
硬	-13172
碗	-13173
磨	-13174
祝	-13175
祭	-13176
秘	-13177
種	-13178
笑	-13179
签	-13180
箭	-13181
篇	-13182
粉	-13183
紀	-13184
級	-13185
網	-13186
綿	-13187
練	-13188
續	-13189
结	-13190
置	-13191
翼	-13192
耳	-13193
聚	-13194
肃	-13195
肥	-13196
肾	-13197
背	-13198
脂	-13199
腐	-13200
膜	-13201
艾	-13202
苏	-13203
荷	-13204
葡	-13205
蔡	-13206
虚	-13207
蚀	-13208
衰	-13209
複	-13210
见	-13211
評	-13212
読	-13213
講	-13214
订	-13215
诉	-13216
读	-13217
课	-13218
谈	-13219
谷	-13220
豊	-13221
貨	-13222
賞	-13223
購	-13224
责	-13225
货	-13226
贵	-13227
赁	-13228
転	-13229
输	-13230
连	-13231
迷	-13232
逼	-13233
遊	-13234
達	-13235
違	-13236
適	-13237
郁	-13238
酢	-13239
門	-13240
閉	-13241
關	-13242
闹	-13243
阪	-13244
阶	-13245
附	-13246
际	-13247
降	-13248
险	-13249
雪	-13250
雾	-13251
靠	-13252
靺	-13253
鞨	-13254
韩	-13255
音	-13256
類	-13257
顶	-13258
顺	-13259
顾	-13260
风	-13261
鲁	-13262
鳥	-13263
鹿	-13264
點	-13265
鼠	-13266
거	-13267
것	-13268
교	-13269
구	-13270
그	-13271
남	-13272
너	-13273
래	-13274
만	-13275
바	-13276
법	-13277
베	-13278
봉	-13279
역	-13280
열	-13281
워	-13282
잘	-13283
저	-13284
점	-13285
즈	-13286
직	-13287
째	-13288
참	-13289
청	-13290
최	-13291
카	-13292
타	-13293
편	-13294
햇	-13295
	-13296
	-13297
	-13298
	-13299
	-13300
	-13301
	-13302
👈	-13303
🖕	-13304
😅	-13305
😒	-13306
🤣	-13307
􀄮	-13308
	-13309
	-13310
	-13311
¦	-13312
û	-13313
ď	-13314
ĭ	-13315
ľ	-13316
ǎ	-13317
ɫ	-13318
ʏ	-13319
ˊ	-13320
ˋ	-13321
̀	-13322
̋	-13323
̎	-13324
̞	-13325
̪	-13326
̯	-13327
̷	-13328
͡	-13329
Ά	-13330
Β	-13331
ψ	-13332
Ђ	-13333
Қ	-13334
Ҷ	-13335
Ժ	-13336
գ	-13337
հ	-13338
ձ	-13339
ք	-13340
ֲ	-13341
ָ	-13342
ֹ	-13343
ֽ	-13344
׀	-13345
ؔ	-13346
ؤ	-13347
ً	-13348
ڊ	-13349
۶	-13350
۾	-13351
ܝ	-13352
ܢ	-13353
ऴ	-13354
॒	-13355
ঝ	-13356
ঠ	-13357
৩	-13358
৭	-13359
ਨ	-13360
ਬ	-13361
ਲ	-13362
ਹ	-13363
ੱ	-13364
ં	-13365
ગ	-13366
જ	-13367
ઝ	-13368
પ	-13369
શ	-13370
ુ	-13371
அ	-13372
ங	-13373
ச	-13374
ெ	-13375
ಗ	-13376
ಳ	-13377
ಶ	-13378
ഇ	-13379
ഉ	-13380
ഖ	-13381
ഭ	-13382
ൃ	-13383
ൊ	-13384
ൻ	-13385
ං	-13386
ල	-13387
ස	-13388
හ	-13389
ි	-13390
ฒ	-13391
༺	-13392
༻	-13393
ག	-13394
ང	-13395
ཏ	-13396
ྒ	-13397
ྩ	-13398
စ	-13399
ဗ	-13400
မ	-13401
ᄒ	-13402
ማ	-13403
ር	-13404
ኛ	-13405
አ	-13406
ឆ	-13407
ឯ	-13408
ឲ	-13409
ៃ	-13410
ៈ	-13411
៉	-13412
៏	-13413
។	-13414
៨	-13415
ᤋ	-13416
ᤖ	-13417
ᤘ	-13418
ᤱ	-13419
ᵻ	-13420
ḍ	-13421
ṵ	-13422
ẫ	-13423
ỏ	-13424
ỡ	-13425
ỳ	-13426
ỷ	-13427
ἀ	-13428
‒	-13429
↓	-13430
↩	-13431
⇄	-13432
⇨	-13433
∀	-13434
─	-13435
╘	-13436
▷	-13437
◌	-13438
❶	-13439
⦁	-13440
〜	-13441
〝	-13442
〟	-13443
づ	-13444
ぬ	-13445
ぱ	-13446
ぴ	-13447
゚	-13448
ギ	-13449
ゲ	-13450
ヒ	-13451
ボ	-13452
ヴ	-13453
丰	-13454
乳	-13455
享	-13456
仁	-13457
仅	-13458
仍	-13459
仔	-13460
伙	-13461
伪	-13462
伯	-13463
係	-13464
倍	-13465
债	-13466
側	-13467
偶	-13468
儀	-13469
億	-13470
免	-13471
児	-13472
兔	-13473
兩	-13474
兰	-13475
冲	-13476
净	-13477
刂	-13478
划	-13479
刚	-13480
則	-13481
剧	-13482
労	-13483
勲	-13484
勾	-13485
區	-13486
卉	-13487
協	-13488
卖	-13489
印	-13490
句	-13491
吃	-13492
呀	-13493
呆	-13494
呈	-13495
咨	-13496
哔	-13497
哩	-13498
哲	-13499
唐	-13500
唔	-13501
唱	-13502
啦	-13503
嗯	-13504
嘗	-13505
図	-13506
固	-13507
垂	-13508
垢	-13509
埼	-13510
堪	-13511
堵	-13512
塞	-13513
墅	-13514
夜	-13515
夠	-13516
妆	-13517
妈	-13518
妙	-13519
姐	-13520
婦	-13521
嫌	-13522
孟	-13523
宏	-13524
审	-13525
宵	-13526
寅	-13527
專	-13528
尊	-13529
尸	-13530
尽	-13531
屈	-13532
岐	-13533
岗	-13534
岩	-13535
峰	-13536
巨	-13537
帕	-13538
干	-13539
幸	-13540
废	-13541
廃	-13542
廊	-13543
异	-13544
弥	-13545
張	-13546
弾	-13547
役	-13548
従	-13549
御	-13550
忌	-13551
忙	-13552
态	-13553
怎	-13554
惊	-13555
慢	-13556
懂	-13557
戴	-13558
払	-13559
扣	-13560
批	-13561
抑	-13562
抛	-13563
抠	-13564
押	-13565
招	-13566
拡	-13567
挙	-13568
挪	-13569
捏	-13570
捕	-13571
掉	-13572
握	-13573
揭	-13574
搜	-13575
搭	-13576
摇	-13577
摘	-13578
擅	-13579
擇	-13580
操	-13581
據	-13582
攝	-13583
攻	-13584
故	-13585
敏	-13586
敢	-13587
敵	-13588
斗	-13589
斜	-13590
暂	-13591
曲	-13592
朴	-13593
杉	-13594
李	-13595
束	-13596
柱	-13597
栃	-13598
校	-13599
核	-13600
械	-13601
椎	-13602
極	-13603
榮	-13604
槐	-13605
欠	-13606
欣	-13607
欲	-13608
歧	-13609
歴	-13610
每	-13611
汇	-13612
汉	-13613
沃	-13614
沉	-13615
沖	-13616
沟	-13617
況	-13618
泉	-13619
泡	-13620
波	-13621
洋	-13622
洲	-13623
派	-13624
济	-13625
涂	-13626
涉	-13627
涌	-13628
涵	-13629
淀	-13630
湾	-13631
湿	-13632
溯	-13633
滋	-13634
漫	-13635
潘	-13636
潟	-13637
烈	-13638
煌	-13639
燥	-13640
狭	-13641
瑞	-13642
瓴	-13643
皆	-13644
益	-13645
盒	-13646
眨	-13647
眾	-13648
码	-13649
砂	-13650
礎	-13651
祈	-13652
秩	-13653
竞	-13654
竭	-13655
端	-13656
笛	-13657
答	-13658
範	-13659
籍	-13660
純	-13661
紡	-13662
絞	-13663
給	-13664
縄	-13665
織	-13666
纠	-13667
纤	-13668
纺	-13669
练	-13670
绅	-13671
绝	-13672
绣	-13673
继	-13674
绵	-13675
義	-13676
羽	-13677
聖	-13678
聪	-13679
肖	-13680
肩	-13681
肺	-13682
胡	-13683
胸	-13684
脑	-13685
脳	-13686
船	-13687
艳	-13688
芽	-13689
苗	-13690
范	-13691
荐	-13692
药	-13693
萄	-13694
蒙	-13695
蓝	-13696
薄	-13697
虎	-13698
虑	-13699
螺	-13700
衆	-13701
術	-13702
裏	-13703
裕	-13704
規	-13705
觀	-13706
託	-13707
証	-13708
詐	-13709
誇	-13710
說	-13711
説	-13712
誰	-13713
調	-13714
請	-13715
讓	-13716
讨	-13717
议	-13718
讲	-13719
评	-13720
译	-13721
询	-13722
谓	-13723
豆	-13724
資	-13725
贝	-13726
贡	-13727
贸	-13728
赌	-13729
赛	-13730
赢	-13731
超	-13732
趋	-13733
距	-13734
較	-13735
輻	-13736
软	-13737
辉	-13738
辖	-13739
辨	-13740
辽	-13741
达	-13742
远	-13743
递	-13744
這	-13745
遂	-13746
遭	-13747
遺	-13748
邀	-13749
邪	-13750
邸	-13751
郡	-13752
郵	-13753
酸	-13754
酿	-13755
释	-13756
銭	-13757
錄	-13758
録	-13759
钟	-13760
银	-13761
链	-13762
阜	-13763
陆	-13764
陕	-13765
陛	-13766
陰	-13767
隆	-13768
隣	-13769
雄	-13770
雅	-13771
雑	-13772
雷	-13773
靖	-13774
静	-13775
鞋	-13776
領	-13777
頭	-13778
頼	-13779
颁	-13780
频	-13781
颗	-13782
飯	-13783
飲	-13784
餅	-13785
饭	-13786
饰	-13787
馬	-13788
駄	-13789
骷	-13790
髅	-13791
鮨	-13792
麼	-13793
默	-13794
黨	-13795
龍	-13796
강	-13797
견	-13798
계	-13799
광	-13800
귀	-13801
글	-13802
급	-13803
난	-13804
넉	-13805
담	-13806
답	-13807
되	-13808
된	-13809
두	-13810
때	-13811
띠	-13812
미	-13813
박	-13814
배	-13815
분	-13816
브	-13817
비	-13818
생	-13819
송	-13820
쉬	-13821
식	-13822
실	-13823
십	-13824
안	-13825
않	-13826
앙	-13827
었	-13828
와	-13829
외	-13830
우	-13831
운	-13832
월	-13833
임	-13834
입	-13835
진	-13836
집	-13837
짱	-13838
첫	-13839
체	-13840
추	-13841
충	-13842
치	-13843
토	-13844
투	-13845
특	-13846
필	-13847
학	-13848
함	-13849
호	-13850
홈	-13851
황	-13852
휴	-13853
	-13854
	-13855
	-13856
	-13857
	-13858
	-13859
🆚	-13860
🌴	-13861
🌷	-13862
🌻	-13863
🎤	-13864
🎹	-13865
🏿	-13866
👍	-13867
👨	-13868
💃	-13869
💓	-13870
🔥	-13871
😘	-13872
😝	-13873
😢	-13874
🙋	-13875
🚫	-13876
􀂥	-13877
	-13878
	-13879
	-13880
	-13881
Å	-13882
ĝ	-13883
Ł	-13884
ň	-13885
ŝ	-13886
ţ	-13887
Ť	-13888
ŭ	-13889
Ż	-13890
ƒ	-13891
ǐ	-13892
ǒ	-13893
Ȯ	-13894
ɉ	-13895
ɖ	-13896
ɦ	-13897
ɨ	-13898
ɯ	-13899
ɳ	-13900
ʈ	-13901
ʋ	-13902
ʑ	-13903
ʾ	-13904
̆	-13905
̒	-13906
̚	-13907
̡	-13908
̩	-13909
̵	-13910
͈	-13911
͙	-13912
ͧ	-13913
ͬ	-13914
ΐ	-13915
Γ	-13916
Ψ	-13917
ϊ	-13918
ϩ	-13919
Ѓ	-13920
Ѕ	-13921
Џ	-13922
Щ	-13923
ђ	-13924
ѓ	-13925
ѕ	-13926
љ	-13927
њ	-13928
џ	-13929
ґ	-13930
Ԩ	-13931
Ա	-13932
Գ	-13933
Զ	-13934
Մ	-13935
բ	-13936
դ	-13937
զ	-13938
ը	-13939
խ	-13940
ծ	-13941
ղ	-13942
ռ	-13943
փ	-13944
ֵ	-13945
ׁ	-13946
ׂ	-13947
ך	-13948
ץ	-13949
؄	-13950
ؘ	-13951
؛	-13952
؟	-13953
ٌ	-13954
ُ	-13955
٫	-13956
ٻ	-13957
ٿ	-13958
ڇ	-13959
ڬ	-13960
۔	-13961
۩	-13962
۱	-13963
۵	-13964
۷	-13965
۸	-13966
۹	-13967
ܒ	-13968
ܗ	-13969
ܪ	-13970
ܬ	-13971
߰	-13972
ऌ	-13973
॑	-13974
॓	-13975
ॣ	-13976
ঃ	-13977
ঙ	-13978
ঢ	-13979
ণ	-13980
ফ	-13981
ূ	-13982
ৈ	-13983
১	-13984
৬	-13985
ਖ	-13986
ਘ	-13987
ਚ	-13988
ਦ	-13989
ਰ	-13990
਼	-13991
ੂ	-13992
ੇ	-13993
ੋ	-13994
੍	-13995
ઇ	-13996
એ	-13997
ઓ	-13998
ચ	-13999
છ	-14000
બ	-14001
ય	-14002
ૌ	-14003
எ	-14004
ந	-14005
ள	-14006
ஸ	-14007
ீ	-14008
ం	-14009
ణ	-14010
ా	-14011
ಣ	-14012
ಬ	-14013
ರ	-14014
ವ	-14015
ೆ	-14016
ೊ	-14017
ഏ	-14018
ഒ	-14019
ഘ	-14020
ധ	-14021
ൽ	-14022
๛	-14023
ཁ	-14024
ཆ	-14025
ད	-14026
འ	-14027
ྤ	-14028
ྱ	-14029
ྴ	-14030
ྷ	-14031
დ	-14032
პ	-14033
ᄃ	-14034
ᆰ	-14035
ᖳ	-14036
ឈ	-14037
ឬ	-14038
៌	-14039
៍	-14040
៕	-14041
០	-14042
២	-14043
៥	-14044
ᤀ	-14045
ᤃ	-14046
ᤅ	-14047
ᤏ	-14048
ᤓ	-14049
ᤔ	-14050
ᤛ	-14051
ᤡ	-14052
ᤢ	-14053
᤻	-14054
ṛ	-14055
ằ	-14056
ẵ	-14057
ẻ	-14058
ễ	-14059
ỹ	-14060
⁣	-14061
₹	-14062
∇	-14063
∏	-14064
∛	-14065
≠	-14066
⊕	-14067
⊗	-14068
⋅	-14069
⋆	-14070
⎼	-14071
┌	-14072
□	-14073
▲	-14074
▶	-14075
◀	-14076
◄	-14077
◎	-14078
☎	-14079
☻	-14080
♂	-14081
♢	-14082
⚽	-14083
⛭	-14084
✏	-14085
✔	-14086
✨	-14087
✴	-14088
❆	-14089
❷	-14090
❸	-14091
❹	-14092
❺	-14093
➧	-14094
⨯	-14095
ⲁ	-14096
ⲏ	-14097
ⲓ	-14098
ⲕ	-14099
ⲣ	-14100
ぁ	-14101
ぃ	-14102
ぜ	-14103
ぽ	-14104
ゅ	-14105
ヘ	-14106
ヨ	-14107
ヾ	-14108
ㄚ	-14109
ㄩ	-14110
七	-14111
丈	-14112
丟	-14113
両	-14114
丸	-14115
乎	-14116
乔	-14117
乡	-14118
乾	-14119
亿	-14120
仏	-14121
仙	-14122
仰	-14123
份	-14124
仿	-14125
伏	-14126
伐	-14127
伤	-14128
伺	-14129
侃	-14130
侧	-14131
侯	-14132
侵	-14133
俊	-14134
俗	-14135
俯	-14136
値	-14137
倾	-14138
偷	-14139
傅	-14140
储	-14141
傲	-14142
傳	-14143
僅	-14144
働	-14145
儲	-14146
允	-14147
兄	-14148
兜	-14149
兵	-14150
冊	-14151
冕	-14152
冤	-14153
冥	-14154
冶	-14155
凄	-14156
処	-14157
凭	-14158
凹	-14159
函	-14160
刊	-14161
刘	-14162
刺	-14163
剂	-14164
削	-14165
剩	-14166
剰	-14167
劇	-14168
劉	-14169
劑	-14170
劝	-14171
努	-14172
劲	-14173
勇	-14174
勋	-14175
勒	-14176
勝	-14177
勤	-14178
勺	-14179
勿	-14180
匙	-14181
协	-14182
卒	-14183
卓	-14184
博	-14185
卜	-14186
卵	-14187
厘	-14188
厥	-14189
厨	-14190
厳	-14191
右	-14192
吞	-14193
启	-14194
吹	-14195
吾	-14196
呪	-14197
呼	-14198
咬	-14199
咽	-14200
哈	-14201
响	-14202
哪	-14203
哺	-14204
哽	-14205
唆	-14206
唯	-14207
唷	-14208
啪	-14209
喪	-14210
嗤	-14211
嘉	-14212
嘞	-14213
噼	-14214
囲	-14215
圄	-14216
圆	-14217
國	-14218
圍	-14219
團	-14220
圣	-14221
址	-14222
坂	-14223
坊	-14224
块	-14225
坛	-14226
坡	-14227
培	-14228
堀	-14229
堯	-14230
填	-14231
墓	-14232
増	-14233
壇	-14234
壊	-14235
壮	-14236
壶	-14237
夕	-14238
夺	-14239
奉	-14240
奋	-14241
套	-14242
奧	-14243
妄	-14244
妊	-14245
妨	-14246
妹	-14247
姆	-14248
姉	-14249
娘	-14250
娜	-14251
娩	-14252
娱	-14253
娴	-14254
婉	-14255
媛	-14256
媲	-14257
嫁	-14258
嬉	-14259
孕	-14260
孙	-14261
孝	-14262
孫	-14263
宋	-14264
宙	-14265
宠	-14266
宣	-14267
宪	-14268
宫	-14269
宰	-14270
宿	-14271
寂	-14272
寝	-14273
寧	-14274
審	-14275
封	-14276
尋	-14277
尖	-14278
尚	-14279
尬	-14280
尴	-14281
尿	-14282
履	-14283
屬	-14284
岛	-14285
岳	-14286
峻	-14287
崽	-14288
嶽	-14289
巅	-14290
巌	-14291
巻	-14292
帐	-14293
帝	-14294
帰	-14295
帶	-14296
帽	-14297
幕	-14298
幹	-14299
幼	-14300
幽	-14301
庁	-14302
床	-14303
庖	-14304
廉	-14305
廣	-14306
廳	-14307
弃	-14308
弄	-14309
弛	-14310
弹	-14311
彫	-14312
彰	-14313
彻	-14314
征	-14315
徳	-14316
忠	-14317
忧	-14318
忽	-14319
怪	-14320
恋	-14321
恥	-14322
恨	-14323
恵	-14324
恶	-14325
悔	-14326
悚	-14327
悟	-14328
悪	-14329
悲	-14330
惚	-14331
惠	-14332
惧	-14333
惯	-14334
惹	-14335
愁	-14336
愕	-14337
慧	-14338
憑	-14339
憨	-14340
懲	-14341
懸	-14342
戀	-14343
戏	-14344
戒	-14345
截	-14346
戯	-14347
戶	-14348
戻	-14349
扑	-14350
扒	-14351
托	-14352
执	-14353
扩	-14354
扬	-14355
扮	-14356
扰	-14357
抗	-14358
折	-14359
抜	-14360
抬	-14361
抱	-14362
抵	-14363
担	-14364
拆	-14365
拒	-14366
拘	-14367
拝	-14368
拟	-14369
拥	-14370
拱	-14371
拳	-14372
拶	-14373
拼	-14374
拾	-14375
挝	-14376
挨	-14377
振	-14378
挺	-14379
捂	-14380
捐	-14381
捞	-14382
捧	-14383
捷	-14384
掏	-14385
搏	-14386
摆	-14387
摊	-14388
摔	-14389
摩	-14390
摸	-14391
撑	-14392
撕	-14393
撮	-14394
撰	-14395
擔	-14396
擴	-14397
攫	-14398
敌	-14399
救	-14400
敦	-14401
敲	-14402
斎	-14403
斑	-14404
斓	-14405
旭	-14406
旱	-14407
旺	-14408
昂	-14409
昊	-14410
昌	-14411
昧	-14412
昨	-14413
昼	-14414
晋	-14415
晦	-14416
晴	-14417
暧	-14418
曾	-14419
朕	-14420
朱	-14421
朵	-14422
杜	-14423
杠	-14424
杨	-14425
架	-14426
柄	-14427
栅	-14428
栓	-14429
栗	-14430
栽	-14431
桃	-14432
档	-14433
桨	-14434
梁	-14435
梦	-14436
梨	-14437
梯	-14438
棉	-14439
棚	-14440
棱	-14441
椅	-14442
楚	-14443
楯	-14444
楼	-14445
樓	-14446
樟	-14447
橘	-14448
欧	-14449
欵	-14450
款	-14451
歇	-14452
歉	-14453
歷	-14454
殿	-14455
毕	-14456
毫	-14457
氓	-14458
氟	-14459
氣	-14460
汁	-14461
沒	-14462
沦	-14463
沫	-14464
沿	-14465
泊	-14466
泌	-14467
泥	-14468
泪	-14469
泰	-14470
泸	-14471
洒	-14472
洞	-14473
洹	-14474
浜	-14475
浣	-14476
浪	-14477
浮	-14478
涝	-14479
涨	-14480
淇	-14481
淡	-14482
添	-14483
渉	-14484
渊	-14485
渍	-14486
渔	-14487
減	-14488
渥	-14489
湛	-14490
溅	-14491
滅	-14492
滞	-14493
滨	-14494
漢	-14495
潔	-14496
潮	-14497
澄	-14498
澳	-14499
灰	-14500
灿	-14501
炉	-14502
炼	-14503
烂	-14504
烟	-14505
烧	-14506
焦	-14507
熱	-14508
爆	-14509
爽	-14510
牆	-14511
牙	-14512
牧	-14513
犁	-14514
犬	-14515
狀	-14516
狂	-14517
狗	-14518
狞	-14519
狰	-14520
猪	-14521
献	-14522
獅	-14523
玄	-14524
玫	-14525
玻	-14526
珠	-14527
琉	-14528
瑰	-14529
璃	-14530
產	-14531
甩	-14532
畝	-14533
畳	-14534
疫	-14535
疲	-14536
痕	-14537
瘠	-14538
皱	-14539
盂	-14540
盆	-14541
盏	-14542
监	-14543
盖	-14544
眉	-14545
眠	-14546
瞟	-14547
瞩	-14548
瞪	-14549
瞬	-14550
矢	-14551
矿	-14552
础	-14553
硕	-14554
碍	-14555
碎	-14556
磁	-14557
磅	-14558
礴	-14559
祉	-14560
祖	-14561
祠	-14562
祥	-14563
票	-14564
祺	-14565
禁	-14566
秉	-14567
秒	-14568
积	-14569
稍	-14570
穫	-14571
穷	-14572
窝	-14573
窟	-14574
竟	-14575
競	-14576
竿	-14577
筆	-14578
筋	-14579
箋	-14580
篷	-14581
粋	-14582
粟	-14583
粤	-14584
粧	-14585
納	-14586
絶	-14587
綠	-14588
緊	-14589
總	-14590
繋	-14591
繞	-14592
繰	-14593
纯	-14594
纳	-14595
纸	-14596
绍	-14597
络	-14598
绩	-14599
绸	-14600
综	-14601
缈	-14602
缓	-14603
缘	-14604
缚	-14605
缥	-14606
缩	-14607
缺	-14608
罩	-14609
罰	-14610
羁	-14611
羊	-14612
耍	-14613
聊	-14614
聘	-14615
職	-14616
肉	-14617
肝	-14618
肪	-14619
肯	-14620
胜	-14621
胶	-14622
脉	-14623
脐	-14624
腊	-14625
腕	-14626
腰	-14627
腺	-14628
腾	-14629
腿	-14630
膨	-14631
臓	-14632
臣	-14633
臨	-14634
臭	-14635
舆	-14636
舉	-14637
舌	-14638
舒	-14639
舞	-14640
航	-14641
芝	-14642
芸	-14643
苍	-14644
若	-14645
苹	-14646
茧	-14647
茨	-14648
草	-14649
荒	-14650
荣	-14651
莅	-14652
莞	-14653
莱	-14654
菌	-14655
菲	-14656
萝	-14657
萨	-14658
蒂	-14659
蒲	-14660
蓋	-14661
蓮	-14662
蕉	-14663
薪	-14664
藉	-14665
藏	-14666
藤	-14667
蘊	-14668
蘭	-14669
虐	-14670
號	-14671
蚊	-14672
蜂	-14673
蜜	-14674
衡	-14675
袖	-14676
袜	-14677
裂	-14678
補	-14679
裡	-14680
裤	-14681
裹	-14682
製	-14683
覆	-14684
覚	-14685
訊	-14686
訪	-14687
詩	-14688
詳	-14689
誕	-14690
諸	-14691
證	-14692
護	-14693
访	-14694
诊	-14695
诞	-14696
诣	-14697
详	-14698
误	-14699
诺	-14700
谁	-14701
豐	-14702
豚	-14703
貌	-14704
財	-14705
貴	-14706
賢	-14707
賤	-14708
贤	-14709
败	-14710
贬	-14711
贯	-14712
贴	-14713
贷	-14714
赋	-14715
赖	-14716
赞	-14717
赶	-14718
跌	-14719
跨	-14720
跳	-14721
践	-14722
踢	-14723
踩	-14724
踪	-14725
踹	-14726
蹭	-14727
軌	-14728
輕	-14729
輩	-14730
輿	-14731
轩	-14732
载	-14733
辦	-14734
辰	-14735
返	-14736
迫	-14737
迭	-14738
述	-14739
迹	-14740
退	-14741
适	-14742
逆	-14743
逊	-14744
逐	-14745
途	-14746
週	-14747
逾	-14748
遥	-14749
邃	-14750
邮	-14751
郑	-14752
酵	-14753
酶	-14754
醋	-14755
醒	-14756
針	-14757
鉴	-14758
鍋	-14759
钥	-14760
钨	-14761
钮	-14762
铁	-14763
铜	-14764
铬	-14765
铭	-14766
锅	-14767
锈	-14768
锦	-14769
锰	-14770
锻	-14771
镀	-14772
镍	-14773
閲	-14774
闊	-14775
闲	-14776
闻	-14777
阐	-14778
阴	-14779
陈	-14780
陥	-14781
陶	-14782
陷	-14783
隅	-14784
隊	-14785
隧	-14786
險	-14787
雇	-14788
雖	-14789
雛	-14790
難	-14791
霉	-14792
霊	-14793
霸	-14794
靓	-14795
靴	-14796
鞭	-14797
韓	-14798
須	-14799
預	-14800
頓	-14801
顔	-14802
願	-14803
顧	-14804
须	-14805
预	-14806
颈	-14807
飽	-14808
飾	-14809
養	-14810
馆	-14811
騒	-14812
驚	-14813
驭	-14814
驶	-14815
驾	-14816
骗	-14817
鬆	-14818
魂	-14819
魔	-14820
鮮	-14821
鲜	-14822
鳴	-14823
鶏	-14824
鶴	-14825
鸭	-14826
鸿	-14827
鹰	-14828
麺	-14829
黎	-14830
齢	-14831
ꣳ	-14832
각	-14833
같	-14834
개	-14835
걸	-14836
겠	-14837
겨	-14838
격	-14839
궁	-14840
권	-14841
극	-14842
근	-14843
김	-14844
껴	-14845
꼭	-14846
납	-14847
내	-14848
넓	-14849
넥	-14850
녀	-14851
느	-14852
늘	-14853
닝	-14854
더	-14855
독	-14856
됩	-14857
등	-14858
딩	-14859
떨	-14860
떻	-14861
람	-14862
랍	-14863
랜	-14864
랩	-14865
러	-14866
럼	-14867
럽	-14868
레	-14869
려	-14870
력	-14871
록	-14872
료	-14873
름	-14874
릎	-14875
릭	-14876
립	-14877
마	-14878
말	-14879
맛	-14880
맞	-14881
매	-14882
맺	-14883
멋	-14884
메	-14885
멘	-14886
며	-14887
목	-14888
몸	-14889
물	-14890
및	-14891
발	-14892
변	-14893
별	-14894
보	-14895
복	-14896
본	-14897
볼	-14898
빌	-14899
뿐	-14900
샵	-14901
섯	-14902
셔	-14903
싸	-14904
써	-14905
야	-14906
얘	-14907
없	-14908
왔	-14909
웠	-14910
유	-14911
육	-14912
융	-14913
음	-14914
잠	-14915
절	-14916
접	-14917
져	-14918
졌	-14919
조	-14920
존	-14921
종	-14922
준	-14923
줍	-14924
줏	-14925
징	-14926
짠	-14927
찬	-14928
찾	-14929
책	-14930
초	-14931
촬	-14932
층	-14933
컬	-14934
켓	-14935
큰	-14936
클	-14937
키	-14938
킹	-14939
탁	-14940
탄	-14941
템	-14942
톤	-14943
튜	-14944
튼	-14945
판	-14946
팬	-14947
페	-14948
평	-14949
표	-14950
플	-14951
피	-14952
핏	-14953
행	-14954
향	-14955
허	-14956
현	-14957
협	-14958
혜	-14959
확	-14960
환	-14961
획	-14962
후	-14963
	-14964
	-14965
	-14966
	-14967
	-14968
	-14969
	-14970
	-14971
	-14972
	-14973
	-14974
	-14975
	-14976
	-14977
🇧	-14978
🇬	-14979
🇯	-14980
🌍	-14981
🌺	-14982
🌽	-14983
🌾	-14984
🌿	-14985
🎥	-14986
👁	-14987
💀	-14988
💦	-14989
📻	-14990
🕸	-14991
😃	-14992
😆	-14993
😎	-14994
😔	-14995
